{
  "vocab": {
    "disappeared": 5419,
    "##rino": 17815,
    "rectory": 24606,
    "resembled": 15881,
    "defeats": 14222,
    "reported": 2988,
    "confined": 12302,
    "##fan": 15143,
    "lou": 10223,
    "##民": 30418,
    "garion": 12523,
    "coordinator": 10669,
    "maple": 11035,
    "reza": 26323,
    "##cr": 26775,
    "sobbing": 20040,
    "breakthrough": 12687,
    "##nut": 24072,
    "cebu": 23312,
    "christmas": 4234,
    "loser": 10916,
    "heritage": 4348,
    "##ination": 12758,
    "snakes": 12971,
    "negotiating": 18875,
    "austro": 16951,
    "disconnected": 23657,
    "aston": 14327,
    "mana": 24951,
    "pollock": 25218,
    "##rite": 17625,
    "universal": 5415,
    "་": 1424,
    "assimilation": 27574,
    "impose": 17607,
    "##ᅦ": 30009,
    "yerevan": 23383,
    "pathology": 19314,
    "terminate": 20320,
    "hangul": 19051,
    "##giving": 23795,
    "##cta": 25572,
    "##enity": 20693,
    "romania": 6339,
    "sewing": 22746,
    "hog": 27589,
    "##rella": 21835,
    "reinforce": 19444,
    "decrees": 28966,
    "intimately": 29024,
    "ferrer": 28390,
    "hansen": 13328,
    "pair": 3940,
    "propaganda": 10398,
    "moritz": 28461,
    "[unused620]": 625,
    "##frey": 22586,
    "##pan": 9739,
    "presumably": 10712,
    "bradley": 8981,
    "wall": 2813,
    "mode": 5549,
    "[unused308]": 313,
    "jamal": 24132,
    "manuscript": 8356,
    "graph": 10629,
    "lancashire": 9638,
    "lesser": 8276,
    "restart": 23818,
    "დ": 1441,
    "producer": 3135,
    "gillespie": 21067,
    "dictator": 21237,
    "##65": 26187,
    "initiating": 26616,
    "京": 1755,
    "tara": 10225,
    "を": 1690,
    "screened": 12238,
    "quan": 24110,
    "pu": 16405,
    "backed": 6153,
    "sabre": 22002,
    "bismarck": 22029,
    "##dim": 22172,
    "##jn": 22895,
    "ridden": 15230,
    "snacks": 27962,
    "##ᄆ": 29995,
    "##bula": 28507,
    "##shire": 7430,
    "threatening": 8701,
    "initially": 3322,
    "taller": 12283,
    "##tructing": 26310,
    "nl": 17953,
    "numerous": 3365,
    "forehead": 6130,
    "gerard": 11063,
    "##bate": 20179,
    "belinda": 24574,
    "##lewood": 26580,
    "》": 1640,
    "##1": 2487,
    "writes": 7009,
    "decreased": 10548,
    "adaptive": 19293,
    "routinely": 19974,
    "certified": 7378,
    "successively": 24288,
    "processes": 6194,
    "hooves": 28399,
    "ants": 16111,
    "encounter": 8087,
    "##ef": 12879,
    "trump": 8398,
    "[unused669]": 674,
    "arena": 5196,
    "swollen": 13408,
    "flanagan": 26558,
    "pronouns": 26028,
    "##』": 30170,
    "##roller": 26611,
    "realizing": 9301,
    "jerk": 12181,
    "radiating": 23229,
    "rib": 19395,
    "bois": 19651,
    "engineered": 13685,
    "clone": 17598,
    "post": 2695,
    "billionaire": 22301,
    "malacca": 28481,
    "pulmonary": 21908,
    "snuck": 24492,
    "[unused181]": 186,
    "tear": 7697,
    "##rricular": 21231,
    "glamorgan": 23861,
    "anatomical": 28141,
    "[unused640]": 645,
    "moroccan": 17494,
    "serene": 25388,
    "karim": 25461,
    "pigment": 28815,
    "entrusted": 18011,
    "dietrich": 22567,
    "##firm": 27972,
    "##ulata": 18060,
    "jaipur": 28355,
    "returning": 4192,
    "skinny": 15629,
    "corrupt": 13593,
    "swear": 8415,
    "##rug": 26549,
    "gareth": 20243,
    "ー": 1739,
    "##ular": 7934,
    "##amy": 24079,
    "♦": 1626,
    "##gum": 22850,
    "##flight": 28968,
    "##hdi": 22960,
    "∇": 1595,
    "collect": 8145,
    "[unused534]": 539,
    "##ils": 12146,
    "reissued": 14805,
    "lair": 21039,
    "↦": 1588,
    "##cp": 21906,
    "mv": 19842,
    "removal": 8208,
    "statement": 4861,
    "##ruck": 29314,
    "##position": 26994,
    "cook": 5660,
    "[unused402]": 407,
    "[unused322]": 327,
    "enlightenment": 16724,
    "placed": 2872,
    "persians": 27229,
    "markus": 23030,
    "confuse": 28679,
    "hurricanes": 17035,
    "roaming": 24430,
    "不": 1744,
    "ultimate": 7209,
    "お": 1650,
    "konstantin": 23989,
    "##fire": 10273,
    "ribbons": 22688,
    "unanimously": 15645,
    "honolulu": 16598,
    "fabric": 8313,
    "helmut": 24515,
    "shifter": 18189,
    "engulfed": 24692,
    "macmillan": 15434,
    "capitalism": 16498,
    "wilton": 26407,
    "lady": 3203,
    "atoll": 22292,
    "oversees": 22558,
    "vance": 16672,
    "spire": 19823,
    "##sio": 20763,
    "shane": 8683,
    "photography": 5855,
    "##‖": 30054,
    "fines": 21892,
    "member": 2266,
    "headlines": 19377,
    "##ger": 4590,
    "annex": 17827,
    "lily": 7094,
    "##ciency": 29125,
    "##loe": 26846,
    "gogh": 26603,
    "price": 3976,
    "recruiting": 14357,
    "mercedes": 10793,
    "temporarily": 8184,
    "nominee": 9773,
    "oaxaca": 26923,
    "dia": 22939,
    "portage": 25140,
    "stephen": 4459,
    "shafts": 20542,
    "calais": 23116,
    "##zoo": 23221,
    "gills": 29468,
    "spirituality": 21244,
    "cure": 9526,
    "##µ": 29659,
    "##ings": 8613,
    "alias": 14593,
    "intelligent": 9414,
    "foe": 22277,
    "bisexual": 22437,
    "tame": 24763,
    "scenes": 5019,
    "stars": 3340,
    "speeches": 13867,
    "lazarus": 23623,
    "francoise": 28979,
    "1650": 21875,
    "relevant": 7882,
    "gonzaga": 26840,
    "trier": 25487,
    "1797": 14112,
    "literacy": 8433,
    "##ener": 24454,
    "sudan": 10411,
    "##mussen": 29134,
    "peach": 18237,
    "prostitutes": 20833,
    "crore": 21665,
    "chopin": 25479,
    "mutant": 15527,
    "##mine": 11233,
    "deposited": 14140,
    "destroys": 20735,
    "美": 1935,
    "α": 1155,
    "##李": 30403,
    "unhappy": 12511,
    "dc": 5887,
    "bombs": 9767,
    "shadow": 5192,
    "##qa": 19062,
    "acton": 28794,
    "degraded": 26131,
    "pairing": 22778,
    "poppy": 19745,
    "paddle": 20890,
    "rattled": 19252,
    "##sight": 25807,
    "##⁵": 30074,
    "budget": 5166,
    "##§": 29650,
    "abdominal": 21419,
    "stronger": 6428,
    "[unused666]": 671,
    "1855": 8492,
    "searched": 9022,
    "accompany": 12673,
    "realistic": 12689,
    "regeneration": 20045,
    "asia": 4021,
    "klein": 12555,
    "underwater": 11564,
    "gloucestershire": 15905,
    "##ম": 29906,
    "locomotive": 8098,
    "rae": 14786,
    "landmarks": 16209,
    "deny": 9772,
    "salaries": 20566,
    "##odle": 26156,
    "eels": 29317,
    "photograph": 9982,
    "residency": 14079,
    "clair": 17936,
    "[unused328]": 333,
    "vapor": 20064,
    "chaplain": 14011,
    "carts": 25568,
    "reprise": 16851,
    "bharatiya": 24243,
    "farms": 8623,
    "sampson": 22041,
    "gains": 12154,
    "clashes": 17783,
    "profits": 11372,
    "recipe": 17974,
    "lavish": 22689,
    "##sef": 20106,
    "accumulated": 14830,
    "##let": 7485,
    "greenwich": 13861,
    "flavors": 26389,
    "promoter": 15543,
    "hopped": 17230,
    "medley": 13863,
    "ᄎ": 1465,
    "slots": 19832,
    "donaldson": 23164,
    "148": 16459,
    "##ₕ": 30093,
    "##iate": 13143,
    "logan": 6307,
    "##rak": 16555,
    "zoological": 26168,
    "volunteer": 6951,
    "fusion": 10077,
    "[unused680]": 685,
    "correctional": 20873,
    "nomination": 6488,
    "1702": 26776,
    "heroin": 19690,
    "relieve": 15804,
    "[unused967]": 972,
    "versa": 18601,
    "slicing": 26514,
    "stunts": 28465,
    "colon": 16844,
    "prakash": 22233,
    "##ী": 29916,
    "arthur": 4300,
    "fuji": 20933,
    "lacey": 16355,
    "melissa": 9606,
    "fungus": 16622,
    "businesses": 5661,
    "refined": 15514,
    "ta": 11937,
    "condemned": 10033,
    "##phs": 18757,
    "wires": 14666,
    "##res": 6072,
    "manner": 5450,
    "jammu": 21433,
    "courtney": 14139,
    "##phonic": 27385,
    "##sil": 27572,
    "quiver": 29049,
    "##sburg": 9695,
    "##stick": 21354,
    "labelled": 18251,
    "jeremiah": 17526,
    "realism": 15650,
    "##inal": 13290,
    "eaten": 8828,
    "dolores": 21544,
    "purity": 18433,
    "associations": 8924,
    "rescue": 5343,
    "perennial": 14638,
    "hermitage": 24708,
    "cramer": 29433,
    "down": 2091,
    "ড": 1360,
    "ρ": 1171,
    "represent": 5050,
    "embrace": 9979,
    "##di": 4305,
    "mcdowell": 25005,
    "degree": 3014,
    "prequel": 28280,
    "vested": 26003,
    "morally": 28980,
    "fowler": 14990,
    "compliant": 24577,
    "pillar": 14809,
    "swamps": 22722,
    "##ots": 12868,
    "##enbach": 21409,
    "diamonds": 11719,
    "##ᅩ": 30011,
    "conqueror": 25466,
    "detained": 14620,
    "compositions": 9265,
    "##pani": 26569,
    "ira": 11209,
    "jenna": 13504,
    "##zio": 12426,
    "priority": 9470,
    "patrol": 6477,
    "tides": 22487,
    "craters": 27561,
    "nero": 19212,
    "rocco": 28167,
    "##and": 5685,
    "irregularities": 28868,
    "carved": 7844,
    "##nate": 12556,
    "lilith": 25576,
    "quickly": 2855,
    "hernandez": 13688,
    "expect": 5987,
    "pulled": 2766,
    "swiftly": 12128,
    "desert": 5532,
    "##70": 19841,
    "widened": 8723,
    "##ices": 23522,
    "kathy": 14986,
    "explodes": 27583,
    "##ently": 28198,
    "eliminate": 11027,
    "topic": 8476,
    "46": 4805,
    "joining": 5241,
    "##bis": 18477,
    "spawning": 27957,
    "##‚": 30057,
    "latin": 3763,
    "h₂o": 24833,
    "##hit": 16584,
    "[unused280]": 285,
    "myles": 27056,
    "##南": 30311,
    "1915": 4936,
    "##uated": 16453,
    "fourteen": 7426,
    "##oned": 17799,
    "fumble": 19576,
    "accordion": 19060,
    "[unused564]": 569,
    "greene": 11006,
    "deaf": 12419,
    "proud": 7098,
    "zinc": 15813,
    "verdict": 14392,
    "lists": 7201,
    "determining": 12515,
    "precinct": 18761,
    "auction": 10470,
    "orchards": 22976,
    "consist": 8676,
    "guthrie": 19952,
    "##sphere": 23874,
    "##bib": 28065,
    "skater": 18815,
    "liang": 16982,
    "##suke": 16867,
    "[unused659]": 664,
    "cowboy": 11762,
    "ecuador": 10378,
    "mommy": 20565,
    "resigned": 5295,
    "reading": 3752,
    "steered": 23424,
    "fremantle": 20358,
    "vertical": 7471,
    "bed": 2793,
    "zhao": 15634,
    "westbound": 24717,
    "dreadful": 21794,
    "##leader": 19000,
    "##gaard": 18839,
    "##craft": 10419,
    "milano": 21613,
    "##ham": 3511,
    "##eh": 11106,
    "jar": 15723,
    "##yer": 10532,
    "himalayas": 26779,
    "##oue": 27872,
    "raining": 24057,
    "##ery": 7301,
    "tracking": 9651,
    "calculations": 16268,
    "inward": 20546,
    "seduction": 26962,
    "##iques": 19516,
    "doesn": 2987,
    "search": 3945,
    "stuffed": 11812,
    "dissatisfaction": 28237,
    "##sters": 15608,
    "##care": 16302,
    "demi": 27668,
    "##セ": 30234,
    "regents": 22832,
    "##laid": 24393,
    "fished": 26281,
    "##gill": 19791,
    "##holm": 18884,
    "legislation": 6094,
    "adherents": 25712,
    "sincere": 18006,
    "[unused807]": 812,
    "¨": 1074,
    "manned": 15371,
    "mainly": 3701,
    "##rt": 5339,
    "paddington": 26318,
    "[unused554]": 559,
    "elliott": 9899,
    "included": 2443,
    "rover": 13631,
    "rows": 10281,
    "##cino": 21081,
    "boulders": 22177,
    "neurological": 23130,
    "##ـ": 29832,
    "[unused407]": 412,
    "module": 11336,
    "##rao": 25667,
    "supervising": 21238,
    "files": 6764,
    "herald": 9536,
    "santana": 21158,
    "hoax": 28520,
    "##vies": 25929,
    "motivated": 12774,
    "hybrid": 8893,
    "guide": 5009,
    "defining": 12854,
    "globalization": 24370,
    "temeraire": 23611,
    "anticipation": 11162,
    "ariel": 16126,
    "novak": 19580,
    "progresses": 22901,
    "shuffle": 23046,
    "timely": 23259,
    "granada": 16553,
    "sugar": 5699,
    "##zzling": 20838,
    "contributed": 5201,
    "dane": 14569,
    "sudbury": 26487,
    "rails": 15168,
    "notes": 3964,
    "gleamed": 25224,
    "##い": 30173,
    "brady": 10184,
    "flies": 10029,
    "[unused427]": 432,
    "##ete": 12870,
    "##holding": 23410,
    "rd": 16428,
    "hong": 4291,
    "environmental": 4483,
    "nonetheless": 9690,
    "automation": 19309,
    "1817": 12529,
    "investigators": 14766,
    "spans": 14798,
    "electors": 19165,
    "##evich": 16277,
    "trench": 14185,
    "ebert": 22660,
    "pauses": 19623,
    "keen": 10326,
    "[unused122]": 127,
    "02": 6185,
    "officer": 2961,
    "##ट": 29856,
    "1934": 4579,
    "^": 1034,
    "prelate": 26595,
    "capacities": 21157,
    "platform": 4132,
    "reddish": 14182,
    "##claim": 25154,
    "implements": 22164,
    "peru": 7304,
    "comte": 19758,
    "criteria": 9181,
    "[unused146]": 151,
    "received": 2363,
    "sarah": 4532,
    "##צ": 29809,
    "easier": 6082,
    "idiot": 10041,
    "[unused661]": 666,
    "sherman": 11011,
    "outdoor": 7254,
    "barber": 13362,
    "fifa": 5713,
    "baritone": 14458,
    "家": 1825,
    "##皇": 30443,
    "bones": 5944,
    "##stems": 29189,
    "calcium": 13853,
    "argent": 23157,
    "hive": 26736,
    "##lav": 14973,
    "jia": 25871,
    "##hari": 18428,
    "##sham": 21010,
    "metro": 6005,
    "marches": 20691,
    "ochreous": 23474,
    "##lok": 29027,
    "winning": 3045,
    "entities": 11422,
    "##lake": 14530,
    "balancing": 20120,
    "bore": 8501,
    "##cave": 27454,
    "##和": 30322,
    "bassett": 28303,
    "poultry": 22468,
    "ย": 1416,
    "##tling": 15073,
    "##ive": 3512,
    "##life": 15509,
    "charlie": 4918,
    "adulthood": 20480,
    "inclusive": 18678,
    "carter": 5708,
    "flattened": 16379,
    "law": 2375,
    "honesty": 16718,
    "1920": 4444,
    "flexible": 12379,
    "f1": 20069,
    "result": 2765,
    "bart": 12075,
    "definitive": 15764,
    "indonesian": 9003,
    "thirteenth": 14725,
    "##acio": 21361,
    "wes": 14008,
    "questioned": 8781,
    "##ru": 6820,
    "singapore": 5264,
    "kentucky": 5612,
    "،": 1268,
    "fixed": 4964,
    "lena": 14229,
    "epidemic": 16311,
    "[unused106]": 111,
    "[unused591]": 596,
    "courage": 8424,
    "ida": 16096,
    "clown": 15912,
    "elevator": 7764,
    "obituary": 20815,
    "claims": 4447,
    "mistakes": 12051,
    "##joy": 24793,
    "bjp": 24954,
    "chocolate": 7967,
    "quezon": 26564,
    "mutation": 16221,
    "##yt": 22123,
    "tumble": 28388,
    "union": 2586,
    "##rae": 16652,
    "ascended": 19644,
    "faith": 4752,
    "seeds": 8079,
    "external": 6327,
    "##helm": 24546,
    "##lberg": 22927,
    "##rell": 16230,
    "yourself": 4426,
    "audiences": 9501,
    "##rate": 11657,
    "messing": 22308,
    "##tao": 28555,
    "lakeside": 28701,
    "operative": 12160,
    "thankfully": 16047,
    "dose": 13004,
    "caucasian": 23368,
    "general": 2236,
    "nation": 3842,
    "frost": 10097,
    "sunglasses": 17072,
    "##cous": 27199,
    "welded": 29014,
    "raymond": 7638,
    "schooling": 14118,
    "joyah": 27098,
    "discount": 19575,
    "spare": 8622,
    "ᄂ": 1456,
    "ones": 3924,
    "##rd": 4103,
    "authored": 8786,
    "[unused568]": 573,
    "dune": 21643,
    "##ada": 8447,
    "##anov": 25417,
    "edict": 24754,
    "[unused613]": 618,
    "rutgers": 18607,
    "controversies": 25962,
    "immigrants": 7489,
    "luxurious": 20783,
    "[unused789]": 794,
    "corridor": 7120,
    "constitute": 12346,
    "##hi": 4048,
    "cones": 23825,
    "স": 1376,
    "complaining": 17949,
    "##going": 26966,
    "pioneered": 16193,
    "places": 3182,
    "mp3": 23378,
    "newspaper": 3780,
    "windsor": 10064,
    "medial": 23828,
    "wreath": 29586,
    "wilbur": 26151,
    "shield": 6099,
    "[unused806]": 811,
    "trilogy": 11544,
    "decommissioned": 14394,
    "amadeus": 27185,
    "inherited": 7900,
    "[unused289]": 294,
    "southend": 26104,
    "advantage": 5056,
    "##ths": 26830,
    "##js": 22578,
    "[unused21]": 22,
    "beating": 6012,
    "lies": 3658,
    "taluka": 29512,
    "taut": 21642,
    "1811": 13086,
    "[unused147]": 152,
    "j": 1046,
    "semiconductor": 20681,
    "ィ": 1694,
    "clicked": 13886,
    "alma": 11346,
    "##eis": 17580,
    "serbia": 7238,
    "acquitted": 18538,
    "overwhelming": 10827,
    "turk": 22883,
    "##志": 30377,
    "tre": 29461,
    "okinawa": 15052,
    "revisited": 24354,
    "##vish": 24968,
    "degradation": 16627,
    "audio": 5746,
    "greedy": 20505,
    "engined": 21235,
    "liquid": 6381,
    "##graph": 14413,
    "1708": 27337,
    "flour": 13724,
    "techniques": 5461,
    "appetite": 18923,
    "operated": 3498,
    "neill": 11511,
    "allegro": 25319,
    "[unused880]": 885,
    "magnetic": 8060,
    "guerre": 24613,
    "watches": 12197,
    "sucker": 26476,
    "##lain": 15987,
    "215": 17405,
    "[unused878]": 883,
    "vuelta": 21441,
    "fiesta": 24050,
    "junior": 3502,
    "ء": 1269,
    "drinking": 5948,
    "[unused231]": 236,
    "[unused668]": 673,
    "tipped": 11182,
    "factions": 13815,
    "tier": 7563,
    "carp": 29267,
    "jed": 24401,
    "risks": 10831,
    "gun": 3282,
    "##grate": 22780,
    "danes": 27476,
    "spill": 14437,
    "ph": 6887,
    "bile": 23974,
    "monroe": 9747,
    "##fy": 12031,
    "demo": 9703,
    "lois": 15815,
    "##ola": 6030,
    "continuously": 10843,
    "missions": 6416,
    "penelope": 18641,
    "bremen": 16314,
    "discussions": 10287,
    "##avio": 28471,
    "competed": 3879,
    "##な": 30193,
    "authenticity": 21452,
    "consumed": 10202,
    "deacon": 14845,
    "##riety": 27840,
    "nomadic": 21702,
    "moscow": 4924,
    "[unused499]": 504,
    "roles": 4395,
    "pod": 17491,
    "1954": 4051,
    "ting": 28642,
    "notch": 18624,
    "glucose": 18423,
    "1707": 25029,
    "astronomers": 26357,
    "judge": 3648,
    "midland": 12240,
    "secondly": 16378,
    "miles": 2661,
    "mallory": 20468,
    "º": 1089,
    "##git": 23806,
    "hips": 6700,
    "asian": 4004,
    "akron": 22735,
    "engraved": 16328,
    "mabel": 19486,
    "##gnon": 26977,
    "confessed": 14312,
    "contexts": 18046,
    "period": 2558,
    "ɪ": 1119,
    "mckinley": 22121,
    "repetition": 23318,
    "library": 3075,
    "talent": 5848,
    "richardson": 9482,
    "mcnamara": 28340,
    "invitational": 20129,
    "##war": 9028,
    "taxonomy": 25274,
    "leak": 17271,
    "whale": 13156,
    "locations": 5269,
    "dismantled": 17293,
    "thomas": 2726,
    "hawkins": 13835,
    "lasting": 9879,
    "##core": 17345,
    "chilean": 12091,
    "##tula": 28970,
    "conquest": 9187,
    "everybody": 7955,
    "starbucks": 29500,
    "falling": 4634,
    "wetlands": 16630,
    "sacrament": 28958,
    "##inking": 29377,
    "hundreds": 5606,
    "##lt": 7096,
    "flipped": 9357,
    "representative": 4387,
    "neighborhoods": 11681,
    "planetary": 17700,
    "##gon": 7446,
    "cornered": 25878,
    "reinstated": 18671,
    "catchment": 22865,
    "##dial": 27184,
    "##գ": 29768,
    "ribbon": 10557,
    "##uet": 23361,
    "elegance": 27745,
    "##bay": 15907,
    "sentimental": 23069,
    "dated": 6052,
    "gershwin": 25600,
    "lithuanian": 10333,
    "yearning": 29479,
    "proficient": 27029,
    "##nosis": 27109,
    "sundance": 20140,
    "356": 27509,
    "##tory": 7062,
    "##ust": 19966,
    "cruisers": 16722,
    "unto": 19662,
    "##ulu": 20391,
    "producers": 6443,
    "##tner": 18885,
    "characteristics": 6459,
    "environmentally": 25262,
    "horace": 12757,
    "##arable": 25236,
    "##lellan": 25839,
    "stares": 14020,
    "determination": 9128,
    "glued": 22805,
    "forerunner": 23993,
    "tapped": 10410,
    "conquered": 11438,
    "sawyer": 13975,
    "discourage": 28085,
    "chick": 14556,
    "bombings": 20109,
    "spelling": 11379,
    "gaul": 26522,
    "possess": 10295,
    "unspecified": 25851,
    "briefs": 28760,
    "viscount": 12182,
    "cocked": 13179,
    "parade": 7700,
    "successes": 14152,
    "berkeley": 8256,
    "detecting": 25952,
    "detachments": 29568,
    "casually": 13217,
    "strikeouts": 20813,
    "millimetres": 13388,
    "##fies": 14213,
    "everett": 15160,
    "##moto": 15319,
    "guest": 4113,
    "cornwall": 10387,
    "##hala": 19531,
    "marks": 6017,
    "unincorporated": 7754,
    "deficiency": 18888,
    "viva": 20022,
    "naming": 10324,
    "begun": 5625,
    "county": 2221,
    "##ury": 13098,
    "76": 6146,
    "simplest": 21304,
    "simultaneously": 7453,
    "planted": 8461,
    "##yam": 14852,
    "teens": 13496,
    "##isi": 17417,
    "viruses": 18191,
    "##yama": 11613,
    "accurately": 14125,
    "musique": 25784,
    "cooked": 12984,
    "##kura": 28260,
    "unsafe": 25135,
    "π": 1170,
    "##ena": 8189,
    "cubic": 11919,
    "##in": 2378,
    "##ired": 27559,
    "sumo": 28193,
    "faux": 29276,
    "##qui": 15549,
    "bombed": 18897,
    "as": 2004,
    "event": 2724,
    "disadvantaged": 27322,
    "stunning": 14726,
    "visas": 24487,
    "olsen": 18997,
    "nervously": 12531,
    "drone": 18465,
    "roses": 10529,
    "ritchie": 20404,
    "poole": 19107,
    "##ག": 29962,
    "histories": 15215,
    "med": 19960,
    "lb": 6053,
    "サ": 1705,
    "annie": 8194,
    "bows": 21207,
    "metropolitan": 4956,
    "cornish": 17797,
    "taylor": 4202,
    "publication": 4772,
    "mm": 3461,
    "announcement": 8874,
    "tank": 4951,
    "peck": 18082,
    "macintosh": 22228,
    "harmless": 19741,
    "browser": 16602,
    "trillion": 23458,
    "vigor": 24474,
    "##mmon": 24521,
    "recital": 25521,
    "sainte": 16947,
    "##typical": 27086,
    "filmmakers": 16587,
    "##φ": 29736,
    "values": 5300,
    "scent": 6518,
    "angry": 4854,
    "felipe": 17095,
    "##kla": 26086,
    "appreciation": 12284,
    "lila": 19286,
    "impression": 8605,
    "forbidden": 10386,
    "[unused900]": 905,
    "##rations": 28893,
    "category": 4696,
    "alive": 4142,
    "subcontinent": 26125,
    "heresy": 28354,
    "1016": 28707,
    "oswald": 17411,
    "א": 1241,
    "imperfect": 29238,
    "excluded": 12421,
    "undertaker": 27568,
    "suspense": 23873,
    "westwood": 21730,
    "##fu": 11263,
    "canadians": 16485,
    "damp": 10620,
    "receptionist": 23775,
    "equation": 8522,
    "doctrines": 23252,
    "homogeneous": 24854,
    "sanitary": 25480,
    "excavations": 14018,
    "##lastic": 28723,
    "glossy": 19504,
    "tasted": 12595,
    "##sson": 7092,
    "inform": 12367,
    "employee": 7904,
    "aye": 13442,
    "possessed": 8679,
    "reigned": 21236,
    "lund": 21860,
    "##bound": 15494,
    "recorded": 2680,
    "##lates": 26786,
    "swaying": 21826,
    "buy": 4965,
    "till": 6229,
    "149": 17332,
    "mud": 8494,
    "hartley": 20955,
    "topical": 25665,
    "shri": 14880,
    "boy": 2879,
    "ミ": 1724,
    "solvent": 23735,
    "cantata": 23629,
    "##ে": 29917,
    "congratulations": 23156,
    "enroll": 25612,
    "anwar": 28372,
    "daggers": 24210,
    "gloves": 11875,
    "rosenthal": 29062,
    "##app": 29098,
    "##lom": 21297,
    "##川": 30361,
    "shelters": 17177,
    "gasped": 8535,
    "paler": 24489,
    "‚": 1522,
    "barbados": 16893,
    "ufc": 11966,
    "marin": 16400,
    "communicating": 20888,
    "groaning": 24781,
    "ursula": 20449,
    "1999": 2639,
    "fisted": 28273,
    "traded": 7007,
    "thumbs": 16784,
    "expectation": 17626,
    "validation": 27354,
    "##quil": 26147,
    "##ท": 29948,
    "sparks": 12300,
    "chances": 9592,
    "synthesized": 23572,
    "strung": 23509,
    "engravings": 28611,
    "##imeter": 19198,
    "humid": 14178,
    "monkeys": 17059,
    "content": 4180,
    "footprints": 24629,
    "##uni": 19496,
    "burrows": 22009,
    "doris": 15467,
    "overs": 15849,
    "petty": 11612,
    "quakers": 28301,
    "born": 2141,
    "[unused150]": 155,
    "tinged": 22683,
    "twitched": 16767,
    "##itz": 8838,
    "fairly": 7199,
    "yearly": 12142,
    "##cade": 21869,
    "pumping": 14107,
    "##athlon": 17563,
    "kinetic": 20504,
    "ground": 2598,
    "hoffmann": 24437,
    "norte": 19931,
    "kgb": 25467,
    "adopted": 4233,
    "refrain": 20703,
    "dubious": 22917,
    "victim": 6778,
    "filed": 6406,
    "tornado": 11352,
    "stirring": 18385,
    "countryside": 10833,
    "ত": 1362,
    "##坂": 30329,
    "##mate": 8585,
    "ག": 1426,
    "mcintosh": 29052,
    "##অ": 29883,
    "outright": 13848,
    "lindsey": 17518,
    "fore": 18921,
    "america": 2637,
    "tension": 6980,
    "##fk": 24316,
    "smarter": 25670,
    "let": 2292,
    "##ᵐ": 30038,
    "appearance": 3311,
    "intention": 6808,
    "bark": 11286,
    "##世": 30271,
    "magnitude": 10194,
    "mole": 16709,
    "breast": 7388,
    "protagonists": 21989,
    "cakes": 22619,
    "jets": 9924,
    "swirled": 19171,
    "upcoming": 9046,
    "reminds": 15537,
    "##京": 30281,
    "nasser": 26099,
    "buddy": 8937,
    "##point": 8400,
    "id": 8909,
    "calabria": 29430,
    "delivered": 5359,
    "bandwidth": 20235,
    "##р": 16856,
    "disgusting": 19424,
    "tulane": 27437,
    "treats": 18452,
    "robb": 26211,
    "fleeting": 25085,
    "[unused197]": 202,
    "length": 3091,
    "talon": 19048,
    "shelby": 15294,
    "##pressed": 19811,
    "##tec": 26557,
    "signaled": 22319,
    "immigrated": 17352,
    "mafia": 13897,
    "alison": 12684,
    "##et": 3388,
    "##ven": 8159,
    "##」": 30168,
    "lyle": 21971,
    "₄": 1551,
    "##lah": 14431,
    "rodriguez": 9172,
    "escapes": 12976,
    "chuckled": 10252,
    "frequencies": 13139,
    "sexes": 21024,
    "inspecting": 29508,
    "invitation": 8468,
    "##rating": 15172,
    "involving": 5994,
    "ை": 1399,
    "islands": 3470,
    "dick": 5980,
    "miserable": 13736,
    "technicians": 20202,
    "madam": 21658,
    "punt": 18975,
    "remnant": 19614,
    "glitter": 27566,
    "paul": 2703,
    "forte": 24898,
    "institutions": 4896,
    "militants": 17671,
    "guitarist": 5990,
    "examination": 7749,
    "kristin": 25130,
    "narrowed": 8061,
    "sturdy": 23073,
    "##白": 30441,
    "commercial": 3293,
    "##lary": 28221,
    "##ids": 9821,
    "##আ": 29884,
    "##dos": 12269,
    "gall": 26033,
    "[unused223]": 228,
    "##ana": 5162,
    "##ator": 8844,
    "mascot": 13314,
    "cp": 18133,
    "kat": 10645,
    "infectious": 16514,
    "##ণ": 29897,
    "jens": 25093,
    "expected": 3517,
    "crack": 8579,
    "tuning": 17372,
    "ella": 11713,
    "##hand": 11774,
    "suspects": 13172,
    "buyers": 17394,
    "incorporating": 13543,
    "expanding": 9186,
    "##rod": 14127,
    "##ept": 23606,
    "000": 2199,
    "rejoined": 14311,
    "awhile": 19511,
    "lausanne": 22256,
    "oath": 11292,
    "mcleod": 25363,
    "##cea": 21456,
    "##lins": 24412,
    "moffat": 28528,
    "playboy": 18286,
    "became": 2150,
    "hood": 7415,
    "dubbed": 9188,
    "governed": 9950,
    "##स": 29874,
    "dynamite": 21719,
    "horne": 24084,
    "soviet": 3354,
    "amended": 13266,
    "enzyme": 9007,
    "##taken": 25310,
    "otis": 18899,
    "catholic": 3234,
    "eighteenth": 12965,
    "macleod": 23075,
    "augusto": 29085,
    "##amen": 27245,
    "##ngo": 16656,
    "##→": 30113,
    "autumn": 7114,
    "dissemination": 28170,
    "torque": 15894,
    "garage": 7381,
    "loaded": 8209,
    "159": 18914,
    "wesleyan": 19858,
    "##ndt": 26379,
    "potter": 10693,
    "##bino": 21891,
    "spared": 16891,
    "gravity": 8992,
    "##vani": 27760,
    "reykjavik": 28559,
    "reviews": 4391,
    "walkway": 19467,
    "hovering": 16349,
    "frames": 11048,
    "confidential": 18777,
    "##lto": 23223,
    "##na": 2532,
    "sleeps": 25126,
    "faso": 22773,
    "violinist": 16609,
    "leinster": 15684,
    "ljubljana": 21588,
    "alcoholism": 25519,
    "##harat": 28074,
    "ottawa": 8166,
    "oriented": 8048,
    "jem": 24193,
    "cliff": 7656,
    "smoked": 20482,
    "availability": 11343,
    "[unused253]": 258,
    "curses": 23897,
    "provisions": 8910,
    "yank": 23178,
    "##aine": 18175,
    "loved": 3866,
    "accompanying": 10860,
    "vessel": 6258,
    "mathews": 23287,
    "defender": 8291,
    "sarcastically": 23800,
    "redemption": 18434,
    "vinyl": 8877,
    "bree": 21986,
    "heels": 8265,
    "tale": 6925,
    "deported": 17929,
    "##lized": 28931,
    "periodic": 15861,
    "prosecutor": 12478,
    "##woman": 10169,
    "sasha": 14673,
    "decks": 19963,
    "आ": 1312,
    "目": 1918,
    "##lini": 22153,
    "hr": 17850,
    "simpson": 9304,
    "abdullah": 14093,
    "margarita": 24570,
    "het": 21770,
    "minimize": 18478,
    "clarified": 20485,
    "snowy": 20981,
    "kazan": 22001,
    "pereira": 23857,
    "feel": 2514,
    "consciously": 24447,
    "[unused22]": 23,
    "yards": 4210,
    "rapidly": 5901,
    "ɒ": 1111,
    "broadcast": 3743,
    "##mal": 9067,
    "neutral": 8699,
    "acacia": 24766,
    "##bas": 22083,
    "numbers": 3616,
    "hollywood": 5365,
    "##nne": 10087,
    "ventilation": 19536,
    "lizzie": 15860,
    "procurement": 21423,
    "bony": 22678,
    "##founded": 21001,
    "shaded": 25273,
    "##ttal": 28200,
    "croft": 28983,
    "bud": 13007,
    "##glia": 20011,
    "iraqi": 8956,
    "monarch": 11590,
    "indoors": 24274,
    "##γ": 29721,
    "##sboro": 25623,
    "##よ": 30210,
    "##པ": 29966,
    "luis": 6446,
    "[unused720]": 725,
    "winds": 7266,
    "upton": 26900,
    "vegetation": 10072,
    "peek": 19043,
    "russell": 5735,
    "##st": 3367,
    "miscellaneous": 25408,
    "boss": 5795,
    "eating": 5983,
    "realities": 22213,
    "biennale": 21140,
    "rachel": 5586,
    "nassau": 14646,
    "wholly": 12590,
    "[unused462]": 467,
    "thinner": 23082,
    "attractive": 8702,
    "pulpit": 23134,
    "safeguard": 28805,
    "anarchy": 26395,
    "afterward": 9707,
    "vastly": 24821,
    "##therapy": 20900,
    "babe": 11561,
    "rust": 18399,
    "##rgo": 18581,
    "[unused921]": 926,
    "erroneously": 29411,
    "landslide": 20148,
    "##shah": 25611,
    "those": 2216,
    "[unused34]": 35,
    "mentions": 9704,
    "consolidation": 17439,
    "naples": 10553,
    "technologies": 6786,
    "##aca": 19629,
    "##chison": 27795,
    "[unused860]": 865,
    "##য": 29907,
    "prescription": 20422,
    "personalities": 12857,
    "##gles": 17125,
    "lei": 26947,
    "explorer": 10566,
    "[unused99]": 104,
    "turbulence": 29083,
    "[unused152]": 157,
    "##dilly": 28832,
    "ran": 2743,
    "vhs": 17550,
    "bank": 2924,
    "13": 2410,
    "bowl": 4605,
    "vertices": 18984,
    "settings": 10906,
    "verbal": 12064,
    "え": 1649,
    "surplus": 15726,
    "romero": 18290,
    "halifax": 10475,
    "atletico": 16132,
    "##sberg": 11711,
    "##bles": 13510,
    "job": 3105,
    "inaugural": 7725,
    "bowen": 16208,
    "saul": 16897,
    "translates": 16315,
    "##都": 30487,
    "村": 1878,
    "nrhp": 22424,
    "touchdown": 7921,
    "д": 1184,
    "ascent": 16354,
    "[unused662]": 667,
    "peer": 8152,
    "whig": 21632,
    "late": 2397,
    "marketplace": 18086,
    "fuels": 20145,
    "inside": 2503,
    "affair": 6771,
    "confidence": 7023,
    "slides": 14816,
    "eyeing": 19285,
    "tendency": 11765,
    "##eed": 13089,
    "steak": 21475,
    "##tails": 22081,
    "benfica": 26542,
    "##ters": 7747,
    "governing": 8677,
    "preserves": 18536,
    "rothschild": 19712,
    "petra": 20953,
    "witnessing": 24740,
    "crawley": 28854,
    "##ᅪ": 30012,
    "##une": 9816,
    "##cent": 13013,
    "spartans": 24293,
    "zeus": 15208,
    "subsidies": 21762,
    "unearthed": 27422,
    "##kata": 29123,
    "ح": 1276,
    "[unused1]": 2,
    "barlow": 17803,
    "leagues": 8121,
    "კ": 1446,
    "launching": 12106,
    "nairobi": 21124,
    "μ": 1166,
    "##ouin": 25058,
    "##hetic": 20086,
    "intriguing": 23824,
    "hoarse": 21221,
    "##tle": 9286,
    "influential": 6383,
    "spp": 26924,
    "workers": 3667,
    "atv": 29108,
    "明": 1865,
    "computational": 15078,
    "[unused62]": 63,
    "armstrong": 9143,
    "[unused65]": 66,
    "⊆": 1611,
    "##pot": 11008,
    "biblical": 10213,
    "canada": 2710,
    "brake": 13428,
    "kite": 20497,
    "##ego": 20265,
    "caracas": 21675,
    "arrests": 17615,
    "penetrate": 19136,
    "already": 2525,
    "caution": 14046,
    "runways": 24578,
    "widow": 7794,
    "polar": 11508,
    "##lver": 26229,
    "terra": 14403,
    "102": 9402,
    "tend": 7166,
    "derives": 12153,
    "shrinking": 28375,
    "##ntly": 20630,
    "##ovich": 12303,
    "[unused752]": 757,
    "natalia": 21521,
    "uefa": 6663,
    "##l": 2140,
    "oversaw": 14105,
    "saturday": 5095,
    "##ナ": 30241,
    "173": 19410,
    "francesco": 11400,
    "bureau": 4879,
    "##imov": 25299,
    "inventions": 21644,
    "educate": 16957,
    "chili": 20238,
    "candy": 9485,
    "##rch": 11140,
    "##atal": 27815,
    "ђ": 1211,
    "duo": 6829,
    "pedestrians": 24946,
    "inscribed": 14551,
    "cologne": 10918,
    "[unused699]": 704,
    "deterioration": 26118,
    "##tic": 4588,
    "ය": 1404,
    "desperation": 15561,
    "selangor": 28904,
    "honduras": 14373,
    "forthcoming": 16875,
    "multiple": 3674,
    "nonfiction": 25753,
    "##ص": 29826,
    "unused": 15171,
    "caf": 24689,
    "smirked": 18775,
    "##г": 29741,
    "rising": 4803,
    "exceptional": 11813,
    "robinson": 6157,
    "rbis": 23583,
    "perception": 10617,
    "solemnly": 26294,
    "alright": 10303,
    "1942": 3758,
    "hat": 6045,
    "##olio": 29401,
    "ticket": 7281,
    "garment": 19002,
    "strive": 29453,
    "hamburger": 24575,
    "##zow": 22670,
    "ike": 25209,
    "##খ": 29890,
    "tangent": 27250,
    "##elt": 20042,
    "excitement": 8277,
    "##⽥": 30160,
    "106": 10114,
    "amounted": 18779,
    "retribution": 25928,
    "[unused246]": 251,
    "spell": 6297,
    "livingston": 14109,
    "volga": 26459,
    "palette": 27396,
    "##aia": 27131,
    "withdrawal": 10534,
    "spend": 5247,
    "credited": 5827,
    "amelia": 11556,
    "songwriting": 14029,
    "sums": 20571,
    "##ہ": 29845,
    "1750": 18171,
    "planets": 11358,
    "clark": 5215,
    "fraudulent": 27105,
    "[unused840]": 845,
    "context": 6123,
    "neighbouring": 9632,
    "sweet": 4086,
    "##phus": 25255,
    "mornings": 16956,
    "awaited": 19605,
    "##dust": 24220,
    "sanjay": 29590,
    "using": 2478,
    "progressed": 12506,
    "##sho": 22231,
    "王": 1909,
    "##ahl": 28083,
    "sera": 26358,
    "##rin": 6657,
    "##maker": 8571,
    "dat": 23755,
    "garcia": 7439,
    "pinched": 18521,
    "huge": 4121,
    "conservative": 4603,
    "iceland": 10399,
    "galerie": 17941,
    "止": 1887,
    "launch": 4888,
    "benches": 19571,
    "applying": 11243,
    "amateurs": 24361,
    "##rek": 16816,
    "clinch": 29119,
    "goalkeeper": 9653,
    "##son": 3385,
    "taxation": 14952,
    "fighters": 7299,
    "erebidae": 25875,
    "gripping": 13940,
    "stealth": 22150,
    "bridge": 2958,
    "1738": 28009,
    "parliament": 3323,
    "agreed": 3530,
    "##mpton": 26793,
    "rafe": 15819,
    "gavin": 9448,
    "##～": 30521,
    "dylan": 7758,
    "inspire": 18708,
    "01": 5890,
    "309": 25048,
    "outdoors": 19350,
    "[unused470]": 475,
    "booth": 9065,
    "1880": 6756,
    "donations": 11440,
    "narration": 21283,
    "380": 17014,
    "##vera": 26061,
    "rack": 14513,
    "ₙ": 1568,
    "cows": 17188,
    "2001": 2541,
    "resumed": 7943,
    "slovenia": 10307,
    "andrew": 4080,
    "cobb": 17176,
    "tackled": 26176,
    "eleventh": 11911,
    "boiling": 16018,
    "variation": 8386,
    "wake": 5256,
    "[unused334]": 339,
    "##ulum": 25100,
    "powder": 9898,
    "milo": 20359,
    "##gai": 23805,
    "superintendent": 9133,
    "[unused747]": 752,
    "fibers": 16662,
    "##win": 10105,
    "abnormal": 19470,
    "voluntary": 10758,
    "stairway": 21952,
    "yourselves": 25035,
    "verify": 20410,
    "da": 4830,
    "smoke": 5610,
    "[unused936]": 941,
    "lara": 13679,
    "pursuing": 11828,
    "competes": 14190,
    "leaked": 15748,
    "##−": 22543,
    "##lating": 22248,
    "resting": 8345,
    "##sea": 17310,
    "tire": 12824,
    "weeds": 20777,
    "sneak": 13583,
    "repeated": 5567,
    "zero": 5717,
    "##lan": 5802,
    "##rh": 25032,
    "messaging": 24732,
    "sipping": 24747,
    "glory": 8294,
    "imaging": 12126,
    "lopez": 8685,
    "##ously": 13453,
    "[unused713]": 718,
    "kill": 3102,
    "298": 27240,
    "motor": 5013,
    "classmates": 19846,
    "##rne": 12119,
    "##pl": 24759,
    "real": 2613,
    "225": 14993,
    "bow": 6812,
    "prepare": 7374,
    "##rks": 19987,
    "talents": 11725,
    "thanked": 15583,
    "portuguese": 5077,
    "##rama": 14672,
    "mahmud": 25886,
    "sally": 8836,
    "triumph": 10911,
    "shade": 8703,
    "hines": 25445,
    "##⁻": 30079,
    "kobe": 24113,
    "causes": 5320,
    "garry": 21507,
    "arteries": 28915,
    "##llon": 22179,
    "##sier": 20236,
    "##س": 29824,
    "##ono": 17175,
    "epilogue": 24297,
    "predator": 15267,
    "quran": 21288,
    "395": 24673,
    "somerset": 9198,
    "nationally": 9582,
    "hesitantly": 24626,
    "##lizer": 28863,
    "yen": 18371,
    "male": 3287,
    "##zumi": 28114,
    "johnson": 3779,
    "lionel": 14377,
    "wu": 8814,
    "worth": 4276,
    "·": 1087,
    "land": 2455,
    "optimization": 20600,
    "store": 3573,
    "##ures": 14900,
    "辶": 1956,
    "stein": 14233,
    "meade": 26501,
    "longing": 15752,
    "system": 2291,
    "##acy": 15719,
    "volkswagen": 18817,
    "virgil": 17270,
    "1857": 8204,
    "budge": 24981,
    "maternal": 11062,
    "⁶": 1540,
    "##hein": 26496,
    "cent": 9358,
    "patriotic": 14314,
    "method": 4118,
    "colombia": 7379,
    "celebrating": 12964,
    "meetings": 6295,
    "confirming": 19195,
    "unusually": 12890,
    "landfall": 21042,
    "##oman": 20778,
    "instant": 7107,
    "salts": 23480,
    "farther": 8736,
    "whitaker": 27049,
    "sid": 15765,
    "##stones": 29423,
    "ginger": 14580,
    "waist": 5808,
    "killers": 15978,
    "gregor": 16973,
    "##rnik": 26437,
    "sources": 4216,
    "landings": 16805,
    "ulysses": 22784,
    "##tub": 28251,
    "brooks": 8379,
    "[unused144]": 149,
    "kolkata": 13522,
    "cotton": 6557,
    "##iro": 9711,
    "dusty": 12727,
    "prolonged": 15330,
    "##ז": 29793,
    "##mah": 25687,
    "loving": 8295,
    "digit": 15340,
    "marathi": 18388,
    "commemorates": 25530,
    "rightful": 27167,
    "enemies": 6716,
    "exiled": 14146,
    "disturbances": 24535,
    "their": 2037,
    "poked": 16826,
    "##co": 3597,
    "apollo": 9348,
    "fruits": 10962,
    "hairy": 15892,
    "gestures": 18327,
    "1604": 28754,
    "analog": 11698,
    "gallagher": 17297,
    "ventura": 21151,
    "organize": 10939,
    "javier": 13824,
    "baghdad": 13952,
    "haji": 28174,
    "plunging": 29059,
    "slaves": 7179,
    "methodist": 8938,
    "[unused656]": 661,
    "##oro": 14604,
    "monthly": 7058,
    "##ows": 15568,
    "##stle": 22516,
    "subset": 16745,
    "teamed": 12597,
    "##eur": 11236,
    "intercollegiate": 21587,
    "dealers": 16743,
    "##llary": 24435,
    "seymour": 13254,
    "tarzan": 24566,
    "barbarians": 28056,
    "crest": 11146,
    "##辶": 30482,
    "concert": 4164,
    "##per": 4842,
    "175": 12862,
    "erie": 13374,
    "seals": 13945,
    "becky": 14407,
    "##uchi": 15217,
    "cool": 4658,
    "visited": 4716,
    "discuss": 6848,
    "catalyst": 16771,
    "khz": 17737,
    "##mler": 18602,
    "れ": 1688,
    "appellate": 23240,
    "##ła": 22972,
    "chamberlain": 13904,
    "redskins": 17461,
    "illicit": 25049,
    "owned": 3079,
    "##之": 30275,
    "races": 3837,
    "word": 2773,
    "character": 2839,
    "addresses": 11596,
    "dreamer": 24726,
    "appeal": 5574,
    "##kowski": 15449,
    "helping": 5094,
    "ching": 19992,
    "lectured": 19206,
    "trapped": 7567,
    "##que": 4226,
    "interactive": 9123,
    "coherent": 18920,
    "princely": 22771,
    "##neck": 18278,
    "##bn": 24700,
    "case": 2553,
    "parrot": 22530,
    "nasa": 9274,
    "hill": 2940,
    "laude": 21602,
    "wo": 24185,
    "derived": 5173,
    "summary": 12654,
    "##nction": 27989,
    "philip": 5170,
    "lil": 13451,
    "hike": 21857,
    "ј": 1214,
    "##cased": 28969,
    "billions": 25501,
    "semifinal": 16797,
    "soaking": 22721,
    "##ל": 29799,
    "rug": 20452,
    "sweep": 11740,
    "##dent": 16454,
    "opener": 16181,
    "coup": 8648,
    "gundam": 26152,
    "uniting": 26112,
    "screen": 3898,
    "##nu": 11231,
    "short": 2460,
    "##伊": 30288,
    "shifters": 21537,
    "rebellion": 7417,
    "[unused953]": 958,
    "##cats": 19588,
    "lark": 23404,
    "universities": 5534,
    "numbering": 15200,
    "##orio": 27416,
    "forearms": 27323,
    "intricate": 17796,
    "prevailing": 19283,
    "geographic": 9183,
    "inferno": 21848,
    "rhineland": 21640,
    "turrets": 21088,
    "nightclub": 15479,
    "questionable": 21068,
    "tailor": 22701,
    "favour": 7927,
    "harvesting": 21534,
    "lame": 20342,
    "pulling": 4815,
    "278": 24709,
    "hinted": 21795,
    "leveled": 22915,
    "transmissions": 21670,
    "center": 2415,
    "hollis": 27477,
    "credible": 23411,
    "reinforcements": 14214,
    "dependence": 18642,
    "curiously": 16484,
    "##wr": 13088,
    "##見": 30474,
    "გ": 1440,
    "colours": 8604,
    "hodgson": 26107,
    "solely": 9578,
    "##iam": 25107,
    "quieter": 27486,
    "baggage": 20220,
    "obtained": 4663,
    "151": 16528,
    "##aneous": 17191,
    "possession": 6664,
    "bristol": 7067,
    "diploma": 9827,
    "##akes": 20060,
    "specifications": 15480,
    "reversed": 11674,
    "afrikaans": 28673,
    "mir": 14719,
    "coa": 28155,
    "marius": 20032,
    "##<": 29629,
    "consultants": 22283,
    "##estra": 26199,
    "zeppelin": 22116,
    "structure": 3252,
    "domestically": 27143,
    "[unused784]": 789,
    "gordon": 5146,
    "##lez": 28060,
    "infants": 16725,
    "##ags": 26454,
    "mutations": 14494,
    "##oulos": 28262,
    "angelica": 19458,
    "ₚ": 1569,
    "sized": 7451,
    "1809": 12861,
    "弘": 1843,
    "##ո": 29779,
    "professorship": 22661,
    "kincaid": 24510,
    "417": 27519,
    "##otto": 23052,
    "benevolent": 25786,
    "finger": 4344,
    "tobias": 16858,
    "deleted": 17159,
    "busch": 15840,
    "##lance": 23078,
    "concordia": 24982,
    "##aco": 22684,
    "loomed": 24358,
    "hypnotic": 28322,
    "##koff": 26126,
    "sergio": 13983,
    "zac": 29250,
    "castle": 3317,
    "320": 13710,
    "droplets": 27126,
    "streamlined": 29445,
    "chen": 8802,
    "ward": 4829,
    "artifacts": 10471,
    "hate": 5223,
    "abrupt": 18772,
    "vamp": 20279,
    "nokia": 22098,
    "##bund": 27265,
    "##mbo": 13344,
    "politics": 4331,
    "##mp": 8737,
    "bees": 13734,
    "overboard": 27089,
    "bare": 6436,
    "criticism": 6256,
    "roster": 9238,
    "bearer": 20905,
    "raked": 22438,
    "##garh": 13484,
    "white": 2317,
    "girls": 3057,
    "building": 2311,
    "pp": 4903,
    "##aging": 16594,
    "utc": 11396,
    "##graphic": 14773,
    "millennia": 27620,
    "punch": 8595,
    "##ₒ": 30091,
    "severe": 5729,
    "fix": 8081,
    "repeatedly": 8385,
    "間": 1969,
    "supplies": 6067,
    "may": 2089,
    "basis": 3978,
    "plotting": 20699,
    "##rona": 26788,
    "predictions": 20932,
    "竹": 1933,
    "afraid": 4452,
    "!": 999,
    "reid": 9027,
    "##lova": 24221,
    "ए": 1314,
    "##cini": 27085,
    "shirts": 11344,
    "laughed": 4191,
    "dead": 2757,
    "retire": 11036,
    "##ð": 29668,
    "seasonal": 12348,
    "##ʒ": 29704,
    "charm": 11084,
    "₂": 1549,
    "sights": 15925,
    "groceries": 26298,
    "[unused438]": 443,
    "tournaments": 8504,
    "##gg": 13871,
    "##ッ": 30237,
    "##cha": 7507,
    "30": 2382,
    "[unused5]": 6,
    "##flow": 12314,
    "deception": 17575,
    "affairs": 3821,
    "heroes": 7348,
    "planes": 9738,
    "sweaty": 19889,
    "toy": 9121,
    "##imate": 21499,
    "##guchi": 16918,
    "##was": 17311,
    "##istles": 28738,
    "realization": 12393,
    "commissioner": 5849,
    "laugh": 4756,
    "##kar": 6673,
    "biography": 8308,
    "##ctric": 22601,
    "comparing": 13599,
    "##ase": 11022,
    "1980": 3150,
    "olds": 19457,
    "##ɾ": 29692,
    "##ments": 8163,
    "fastest": 7915,
    "plateau": 9814,
    "orphan": 18211,
    "inline": 23881,
    "renewable": 13918,
    "##≡": 30134,
    "kathmandu": 28045,
    "##ehan": 24660,
    "hopes": 8069,
    "jointly": 10776,
    "knotted": 27039,
    "##if": 10128,
    "##alia": 22786,
    "##des": 6155,
    "sham": 25850,
    "pathway": 12732,
    "struggled": 6915,
    "subtle": 11259,
    "chefs": 27828,
    "##良": 30464,
    "corbin": 24003,
    "enter": 4607,
    "nuevo": 22250,
    "boom": 8797,
    "##ined": 21280,
    "lev": 23310,
    "ape": 23957,
    "hacked": 28719,
    "bananas": 26191,
    "keenan": 26334,
    "affiliate": 8727,
    "##tick": 26348,
    "##um": 2819,
    "reacted": 14831,
    "tomato": 20856,
    "adele": 17623,
    "speaks": 8847,
    "begs": 27591,
    "greenland": 16128,
    "madras": 12993,
    "quadrant": 29371,
    "malaga": 27382,
    "##elled": 21148,
    "fingers": 3093,
    "南": 1785,
    "clause": 11075,
    "overwhelmed": 13394,
    "worried": 5191,
    "glasgow": 6785,
    "##tell": 23567,
    "deadly": 9252,
    "pbs": 13683,
    "augustine": 14060,
    "tasmanian": 21394,
    "##sden": 27903,
    "vocalist": 8032,
    "marcos": 14810,
    "handful": 9210,
    "the": 1996,
    "counterpart": 13637,
    "vimes": 28482,
    "dickson": 22076,
    "chapters": 9159,
    "110": 7287,
    "dealer": 11033,
    "home": 2188,
    "school": 2082,
    "typically": 4050,
    "cassidy": 13737,
    "こ": 1655,
    "tottenham": 18127,
    "eyelashes": 25150,
    "る": 1687,
    "act": 2552,
    "griffith": 14135,
    "psychiatrist": 18146,
    "tired": 5458,
    "##hearted": 27693,
    "sears": 18493,
    "certificate": 8196,
    "sirens": 20675,
    "arturo": 20520,
    "faulkner": 25109,
    "potentially": 9280,
    "stanley": 6156,
    "[unused341]": 346,
    "beatrice": 14807,
    "diverse": 7578,
    "humane": 23369,
    "creators": 17277,
    "furnished": 19851,
    "##nis": 8977,
    "rejection": 13893,
    "##₉": 30085,
    "farming": 7876,
    "tramway": 17050,
    "payments": 10504,
    "beliefs": 9029,
    "অ": 1347,
    "proper": 5372,
    "twisting": 12814,
    "disappear": 10436,
    "explicit": 13216,
    "##zie": 14272,
    "anders": 15387,
    "方": 1863,
    "##vina": 17948,
    "##ivated": 21967,
    "##pura": 21228,
    "si": 9033,
    "plum": 22088,
    "chapels": 24130,
    "rihanna": 25439,
    "arrives": 8480,
    "shelf": 11142,
    "[unused393]": 398,
    "版": 1907,
    "shown": 3491,
    "##sas": 20939,
    "##bour": 25127,
    "rotten": 11083,
    "guam": 16162,
    "crowns": 24364,
    "##朝": 30400,
    "cockpit": 13828,
    "rahman": 14364,
    "airfields": 25278,
    "profile": 6337,
    "##gar": 6843,
    "romani": 23982,
    "audition": 14597,
    "ʒ": 1138,
    "torn": 7950,
    "##tou": 24826,
    "dig": 10667,
    "hastily": 15789,
    "fours": 23817,
    "subgenus": 25356,
    "چ": 1303,
    "outlets": 11730,
    "dvd": 4966,
    "robin": 5863,
    "ultra": 11087,
    "sparsely": 24961,
    "ontario": 4561,
    "travelers": 15183,
    "relevance": 21923,
    "impulse": 14982,
    "spiral": 12313,
    "##phate": 24556,
    "##otted": 26174,
    "choi": 18151,
    "hostess": 22566,
    "##gn": 16206,
    "enacted": 11955,
    "similarly": 6660,
    "timber": 7227,
    "agreements": 10540,
    "mack": 11349,
    "compare": 12826,
    "palazzo": 18482,
    "##world": 11108,
    "barangay": 20937,
    "prepares": 20776,
    "escorts": 24877,
    "##ille": 10484,
    "landau": 28570,
    "maternity": 23676,
    "socrates": 26772,
    "##brand": 23544,
    "##nation": 9323,
    "urgent": 13661,
    "ब": 1329,
    "metals": 11970,
    "##ław": 19704,
    "##yte": 17250,
    "turnpike": 17116,
    "##entes": 26933,
    "dade": 27647,
    "eton": 21687,
    "##vos": 19862,
    "handwriting": 24149,
    "##nsen": 29428,
    "penalties": 12408,
    "stuff": 4933,
    "lars": 16357,
    "qc": 25196,
    "##idon": 28201,
    "valves": 17355,
    "shrieked": 22383,
    "galleries": 11726,
    "antigua": 26023,
    "[unused911]": 916,
    "##orescence": 20030,
    "##ggle": 24679,
    "fu": 11865,
    "bribes": 29117,
    "ヒ": 1719,
    "ร": 1417,
    "##dier": 24612,
    "##ン": 30263,
    "trap": 8132,
    "obsolete": 15832,
    "##vey": 12417,
    "insulin": 22597,
    "exit": 6164,
    "communists": 13009,
    "forewings": 13211,
    "abyss": 22159,
    "accordingly": 11914,
    "field": 2492,
    "##fell": 23510,
    "pueblo": 18273,
    "electrode": 28688,
    "stalk": 23899,
    "##view": 8584,
    "##grave": 12830,
    "accessibility": 23661,
    "dragged": 7944,
    "の": 1671,
    "keep": 2562,
    "efforts": 4073,
    "refuse": 10214,
    "lafayette": 14425,
    "padma": 23731,
    "breadth": 25291,
    "learners": 26262,
    "recovered": 6757,
    "axle": 17290,
    "cale": 21854,
    "glee": 18874,
    "offered": 3253,
    "revolutionaries": 24517,
    "liaison": 14975,
    "nicola": 17388,
    "##tology": 23479,
    "##xon": 22500,
    "dayton": 14700,
    "##pose": 20688,
    "remembering": 10397,
    "ʉ": 1131,
    "flag": 5210,
    "flourish": 24299,
    "mayhem": 26865,
    "忄": 1850,
    "molded": 27992,
    "510": 23475,
    "additional": 3176,
    "chassis": 11832,
    "aided": 11553,
    "proposes": 17146,
    "recounted": 22906,
    "ipa": 24531,
    "procedure": 7709,
    "mediterranean": 7095,
    "manuscripts": 10485,
    "improvements": 8377,
    "sr": 5034,
    "solitary": 14348,
    "artisans": 26818,
    "yes": 2748,
    "booths": 27612,
    "visually": 17453,
    "tucked": 9332,
    "caledonia": 19305,
    "unicode": 27260,
    "contra": 24528,
    "subdivided": 15369,
    "仁": 1758,
    "shed": 8328,
    "tactics": 9887,
    "namibia": 15408,
    "gaping": 21226,
    "fares": 27092,
    "km": 2463,
    "hooks": 18008,
    "##arian": 12199,
    "dispose": 27764,
    "steps": 4084,
    "mast": 15429,
    "improvisation": 24584,
    "erect": 14908,
    "savage": 9576,
    "superhero": 16251,
    "legal": 3423,
    "esther": 14631,
    "ignoring": 9217,
    "declared": 4161,
    "##alo": 23067,
    "ions": 15956,
    "systemic": 22575,
    "永": 1896,
    "barbara": 6437,
    "freiburg": 22871,
    "candace": 22905,
    "ars": 29393,
    "1651": 29077,
    "##ental": 21050,
    "paramilitary": 22258,
    "kung": 18577,
    "northeastern": 8763,
    "beech": 21760,
    "skating": 10080,
    "boot": 9573,
    "diagnosis": 11616,
    "justification": 19777,
    "visibility": 16476,
    "cinematography": 16434,
    "mac": 6097,
    "butterflies": 15023,
    "##aja": 22734,
    "delilah": 23006,
    "[unused833]": 838,
    "##piration": 16781,
    "##dington": 21504,
    "weekend": 5353,
    "ditch": 14033,
    "microwave": 18302,
    "turks": 12896,
    "espionage": 21003,
    "postage": 22981,
    "##@": 29633,
    "##分": 30301,
    "ツ": 1712,
    "[unused291]": 296,
    "permanently": 8642,
    "pigs": 14695,
    "1798": 13036,
    "percival": 27832,
    "email": 10373,
    "rations": 29559,
    "eleanor": 10508,
    "scholars": 5784,
    "stakes": 7533,
    "##leigh": 13615,
    "[unused312]": 317,
    "qu": 24209,
    "##ს": 29988,
    "munich": 7469,
    "##vill": 26548,
    "##水": 30419,
    "booking": 21725,
    "##raphic": 20721,
    "##⁸": 30077,
    "specialty": 12233,
    "relativity": 20805,
    "happy": 3407,
    "315": 22904,
    "##400": 29537,
    "hamlet": 8429,
    "parry": 20803,
    "television": 2547,
    "builder": 12508,
    "definite": 15298,
    "above": 2682,
    "fight": 2954,
    "333": 21211,
    "flashing": 12659,
    "shawn": 13218,
    "outlawed": 29131,
    "rings": 7635,
    "lincoln": 5367,
    "reaching": 4285,
    "legislatures": 27977,
    "antenna": 13438,
    "snatched": 14177,
    "[unused166]": 171,
    "1874": 7586,
    "catalan": 13973,
    "advertisements": 14389,
    "##ision": 19969,
    "distance": 3292,
    "ordinary": 6623,
    "lindsay": 12110,
    "lauderdale": 23520,
    "##ped": 5669,
    "palm": 5340,
    "dollar": 7922,
    "allegedly": 9382,
    "brigham": 22727,
    "ut": 21183,
    "social": 2591,
    "hari": 21291,
    "hardwood": 23165,
    "lions": 7212,
    "##ticus": 29587,
    "swimmer": 13361,
    "operating": 4082,
    "botanical": 13194,
    "cleaner": 20133,
    "nfl": 5088,
    "freighter": 27945,
    "technological": 10660,
    "colton": 21000,
    "##pton": 15857,
    "##cht": 10143,
    "##nta": 12380,
    "def": 13366,
    "anonymous": 10812,
    "accent": 9669,
    "communication": 4807,
    "##eau": 10207,
    "scooted": 24289,
    "ก": 1409,
    "anything": 2505,
    "ᄑ": 1468,
    "cycles": 12709,
    "doing": 2725,
    "instrumentalist": 29253,
    "moves": 5829,
    "contents": 8417,
    "guidance": 8606,
    "intentional": 21249,
    "##lynn": 27610,
    "theaters": 12370,
    "zeke": 18270,
    "saving": 7494,
    "customer": 8013,
    "sees": 5927,
    "householder": 7536,
    "fortress": 7841,
    "crater": 11351,
    "[unused415]": 420,
    "aisle": 12485,
    "braking": 24427,
    "populated": 10357,
    "celebrate": 8439,
    "neighbourhood": 10971,
    "spitfire": 28323,
    "hatch": 11300,
    "katrina": 16864,
    "klan": 26613,
    "pertaining": 20246,
    "cunning": 23626,
    "355": 26271,
    "societal": 23382,
    "с": 1196,
    "way": 2126,
    "sank": 7569,
    "synod": 15374,
    "stable": 6540,
    "piazza": 22463,
    "strategically": 23972,
    "mundane": 24684,
    "canned": 27141,
    "houston": 5395,
    "##tically": 25084,
    "surgical": 11707,
    "chilling": 27017,
    "parts": 3033,
    "##hang": 18003,
    "flick": 17312,
    "1956": 3838,
    "lilly": 14765,
    "##×": 26306,
    "relocating": 26811,
    "southwestern": 8772,
    "1754": 22593,
    "gazette": 11391,
    "components": 6177,
    "[unused676]": 681,
    "grams": 20372,
    "task": 4708,
    "coastline": 15458,
    "carver": 20163,
    "##ska": 8337,
    "diesel": 7937,
    "[unused478]": 483,
    "newcastle": 8142,
    "relief": 4335,
    "madonna": 11284,
    "##may": 27871,
    "hacker": 23307,
    "mars": 7733,
    "gross": 7977,
    "considerably": 9839,
    "publicity": 11845,
    "も": 1681,
    "ghost": 5745,
    "iris": 11173,
    "sweating": 18972,
    "##idia": 29342,
    "##tura": 27431,
    "indies": 9429,
    "tasks": 8518,
    "followers": 8771,
    "fugitive": 21329,
    "tracked": 12808,
    "abducted": 20361,
    "##icing": 23553,
    "441": 28015,
    "herr": 23506,
    "emphasizes": 20618,
    "offense": 10048,
    "handgun": 28497,
    "##mona": 21781,
    "someplace": 24956,
    "##フ": 30246,
    "servant": 7947,
    "carry": 4287,
    "##her": 5886,
    "##χ": 29737,
    "royalty": 16664,
    "specializing": 14055,
    "aggregation": 28041,
    "stuart": 6990,
    "benoit": 21721,
    "mixed": 3816,
    "whisky": 21265,
    "tattoos": 18395,
    "listener": 19373,
    "avid": 18568,
    "comfort": 7216,
    "coated": 15026,
    "ף": 1260,
    "[unused417]": 422,
    "proceeding": 18207,
    "commentator": 12268,
    "observers": 14009,
    "hawker": 23937,
    "eucalyptus": 27111,
    "rios": 25836,
    "europeans": 13481,
    "equity": 10067,
    "considering": 6195,
    "opted": 12132,
    "murdoch": 19954,
    "##nya": 17238,
    "strengths": 20828,
    "##bby": 14075,
    "ec": 14925,
    "##viere": 27087,
    "revolver": 17863,
    "alike": 11455,
    "##jali": 28948,
    "patterned": 25336,
    "dmitry": 22141,
    "reptiles": 20978,
    "incredibly": 11757,
    "drilled": 24311,
    "computer": 3274,
    "mukherjee": 27040,
    "mirage": 21483,
    "##hell": 18223,
    "cognitive": 10699,
    "56": 5179,
    "sink": 7752,
    "1859": 8165,
    "person": 2711,
    "oppressive": 28558,
    "flee": 10574,
    "fourier": 26899,
    "insist": 18292,
    "##rnier": 28484,
    "pilots": 8221,
    "zealand": 3414,
    "spears": 13957,
    "##zz": 13213,
    "basement": 8102,
    "##rza": 24175,
    "seamen": 28671,
    "welcome": 6160,
    "carriages": 17744,
    "beans": 13435,
    "nigerian": 11884,
    "brand": 4435,
    "gregg": 18281,
    "mentally": 10597,
    "##eme": 21382,
    "quebec": 5447,
    "roughly": 5560,
    "dioxide": 14384,
    "##ɕ": 29680,
    "colchester": 20115,
    "##shaft": 25679,
    "parked": 9083,
    "rebranded": 18233,
    "port": 3417,
    "rumble": 15658,
    "iucn": 20333,
    "translating": 22969,
    "norman": 5879,
    "climates": 24734,
    "##rke": 25074,
    "258": 24398,
    "rehearsals": 24760,
    "cantor": 26519,
    "banquet": 19032,
    "arbor": 19679,
    "collection": 3074,
    "undefeated": 15188,
    "selective": 13228,
    "trapping": 22977,
    "##net": 7159,
    "cowan": 25752,
    "robbers": 28019,
    "tbilisi": 22406,
    "artery": 16749,
    "##cultural": 29415,
    "[unused518]": 523,
    "bloc": 15984,
    "面": 1976,
    "ambassador": 6059,
    "villa": 6992,
    "beta": 8247,
    "bid": 7226,
    "vertically": 20018,
    "1825": 11384,
    "must": 2442,
    "unanimous": 13604,
    "arriving": 7194,
    "440": 17422,
    "loren": 28779,
    "fine": 2986,
    "penguin": 13987,
    "eastwood": 24201,
    "figurative": 29407,
    "tudor": 15588,
    "upward": 10745,
    "parkinson": 20310,
    "beit": 28236,
    "lying": 4688,
    "girlfriends": 27408,
    "grips": 24758,
    "tech": 6627,
    "retracted": 28214,
    "orient": 16865,
    "310": 17196,
    "car": 2482,
    "potomac": 18854,
    "entourage": 25342,
    "wait": 3524,
    "uv": 23068,
    "pitt": 15091,
    "##fting": 26169,
    "fia": 19807,
    "[unused505]": 510,
    "ambulance": 10771,
    "anytime": 15933,
    "knelt": 12804,
    "hangar": 18284,
    "woman": 2450,
    "angus": 13682,
    "earle": 23888,
    "1978": 3301,
    "dwelling": 13160,
    "feeling": 3110,
    "##／": 30518,
    "narrative": 7984,
    "maryland": 5374,
    "tuba": 29242,
    "##rgos": 22280,
    "superfamily": 24169,
    "cluster": 9324,
    "##cko": 19665,
    "runs": 3216,
    "##nam": 13129,
    "ride": 4536,
    "championship": 2528,
    "voyager": 23493,
    "kind": 2785,
    "explaining": 9990,
    "paperwork": 17397,
    "keystone": 22271,
    "cartridges": 22998,
    "arun": 28217,
    "taps": 25316,
    "##aver": 22208,
    "##kus": 22332,
    "##anu": 24076,
    "##media": 16969,
    "repulsed": 24571,
    "[unused839]": 844,
    "і": 1213,
    "rex": 10151,
    "abduction": 23415,
    "quarry": 12907,
    "malley": 25271,
    "federally": 20892,
    "[unused561]": 566,
    "307": 24559,
    "humiliating": 28284,
    "separately": 10329,
    "concrete": 5509,
    "crystalline": 24628,
    "takahashi": 25585,
    "cages": 27157,
    "ね": 1670,
    "http": 8299,
    "total": 2561,
    "parasite": 21198,
    "parallels": 18588,
    "[unused233]": 238,
    "chalk": 16833,
    "interspersed": 25338,
    "##rat": 8609,
    "terminal": 5536,
    "buds": 26734,
    "∨": 1603,
    "era": 3690,
    "knot": 12226,
    "discussing": 10537,
    "racist": 16939,
    "thanksgiving": 15060,
    "dictated": 23826,
    "1618": 29029,
    "yep": 15624,
    "bhutan": 18768,
    "##riation": 18769,
    "murderer": 13422,
    "##izer": 17629,
    "1699": 28718,
    "spence": 22186,
    "##nsor": 29577,
    "treated": 5845,
    "accountable": 26771,
    "split": 3975,
    "interceptor": 24727,
    "copa": 10613,
    "##uch": 10875,
    "##pm": 9737,
    "insignia": 16751,
    "[unused751]": 756,
    "exploit": 18077,
    "##folding": 21508,
    "[unused986]": 991,
    "knife": 5442,
    "##mond": 11442,
    "padded": 20633,
    "40": 2871,
    "respectively": 4414,
    "container": 11661,
    "tunisian": 22946,
    "accommodated": 28959,
    "unofficially": 29322,
    "strong": 2844,
    "ʷ": 1143,
    "drugs": 5850,
    "anglican": 9437,
    "packs": 15173,
    "walker": 5232,
    "sutra": 26567,
    "battleships": 21327,
    "strap": 16195,
    "##ity": 3012,
    "leipzig": 11222,
    "chilled": 23362,
    "harrow": 24560,
    "understood": 5319,
    "buick": 28865,
    "lister": 27177,
    "arcade": 10877,
    "citing": 8951,
    "##vyn": 23487,
    "##ocytes": 28788,
    "stabbing": 21690,
    "hussain": 20093,
    "[unused435]": 440,
    "scorer": 10835,
    "hazardous": 17760,
    "adjective": 24931,
    "admitted": 4914,
    "blackwell": 18776,
    "traced": 9551,
    "mystical": 17529,
    "##oton": 25862,
    "bothered": 11250,
    "##itors": 27287,
    "##শ": 29910,
    "bridgeport": 27986,
    "waivers": 28654,
    "attempts": 4740,
    "##rase": 23797,
    "retains": 14567,
    "##車": 30480,
    "##iance": 28335,
    "ties": 7208,
    "##ways": 14035,
    "]": 1033,
    "##ial": 4818,
    "behalf": 6852,
    "partisans": 20762,
    "stain": 21101,
    "mani": 23624,
    "imminent": 17566,
    "##da": 2850,
    "sinks": 23462,
    "[unused719]": 724,
    "hendrix": 20645,
    "二": 1752,
    "msc": 23794,
    "lucifer": 24184,
    "##promising": 25013,
    "oldham": 18285,
    "##ua": 6692,
    "labrador": 18604,
    "[unused916]": 921,
    "articulated": 20742,
    "1931": 4739,
    "ト": 1714,
    "indie": 10271,
    "psychologist": 15034,
    "benton": 18685,
    "poses": 22382,
    "dustin": 24337,
    "mere": 8210,
    "clade": 21697,
    "##ausen": 25701,
    "##oma": 9626,
    "sinister": 16491,
    "##pop": 16340,
    "reelection": 17648,
    "studied": 3273,
    "verlag": 14552,
    "##hing": 12053,
    "[unused64]": 65,
    "dalai": 28511,
    "##ய": 29926,
    "##dhi": 19114,
    "luther": 9678,
    "sexually": 12581,
    "##ayton": 29319,
    "wanted": 2359,
    "perfect": 3819,
    "reaction": 4668,
    "[unused282]": 287,
    "kilda": 22633,
    "visiting": 5873,
    "leto": 24543,
    "##alic": 27072,
    "merlin": 15993,
    "once": 2320,
    "venues": 9356,
    "pediatric": 23614,
    "馬": 1980,
    "unitarian": 25477,
    "[unused370]": 375,
    "##phobic": 20200,
    "[unused258]": 263,
    "##drum": 21884,
    "baldwin": 10970,
    "lowe": 14086,
    "die": 3280,
    "chuckles": 26088,
    "illumination": 21203,
    "investigation": 4812,
    "temporal": 15850,
    "traditional": 3151,
    "walls": 3681,
    "harshly": 21052,
    "flew": 5520,
    "bottles": 11015,
    "##carriage": 21539,
    "##ψ": 29738,
    "ensuring": 12725,
    "nawab": 26543,
    "heavyweight": 8366,
    "oakland": 9182,
    "tin": 9543,
    "protesters": 13337,
    "preview": 19236,
    "influenced": 5105,
    "##worth": 5172,
    "overcome": 9462,
    "systematic": 11778,
    "rejects": 19164,
    "altitudes": 21973,
    "##男": 30438,
    "cooperation": 6792,
    "##禾": 30453,
    "##ns": 3619,
    "rests": 16626,
    "##llah": 18599,
    "macy": 20914,
    "mariana": 22097,
    "##ods": 20620,
    "hannover": 29209,
    "revolt": 10073,
    "##qua": 16211,
    "bala": 21451,
    "polynomial": 17505,
    "bowed": 11489,
    "sinclair": 11881,
    "bmw": 13154,
    "pickup": 15373,
    "spilling": 18054,
    "smashing": 21105,
    "1933": 4537,
    "endangered": 10193,
    "1752": 24736,
    "##rney": 27114,
    "##aldo": 27318,
    "wildlife": 6870,
    "norse": 15342,
    "batavia": 28917,
    "##loaded": 17468,
    "[unused570]": 575,
    "cavendish": 23570,
    "beaumont": 16210,
    "246": 22376,
    "wang": 7418,
    "nemesis": 21363,
    "dub": 12931,
    "built": 2328,
    "maynard": 22130,
    "mohammed": 12619,
    "secretaries": 23660,
    "jogging": 28233,
    "adequately": 23613,
    "宀": 1818,
    "biceps": 27947,
    "counter": 4675,
    "overseas": 6931,
    "##ا": 25573,
    "science": 2671,
    "ذ": 1279,
    "praise": 8489,
    "display": 4653,
    "dickens": 19675,
    "##llin": 21202,
    "kangaroo": 21652,
    "apt": 26794,
    "jacques": 7445,
    "theologian": 17200,
    "##面": 30502,
    "agile": 29003,
    "slender": 10944,
    "rochester": 10541,
    "cave": 5430,
    "italia": 13052,
    "##阝": 30496,
    "station": 2276,
    "greer": 25939,
    "##enham": 23580,
    "highs": 26836,
    "invariably": 26597,
    "activation": 13791,
    "##ilia": 27861,
    "##station": 20100,
    "utilization": 27891,
    "doubted": 12979,
    "cheney": 23745,
    "chet": 25157,
    "cried": 6639,
    "##kur": 18569,
    "##anger": 25121,
    "illuminating": 27816,
    "sherlock": 20052,
    "detail": 6987,
    "asbestos": 29191,
    "ა": 1438,
    "dragons": 8626,
    "[unused309]": 314,
    "[unused522]": 527,
    "establishing": 7411,
    "bringing": 5026,
    "poking": 21603,
    "soaring": 23990,
    "sinking": 10186,
    "sealing": 23038,
    "æ": 1097,
    "fund": 4636,
    "##sy": 6508,
    "payton": 28666,
    "##ized": 3550,
    "scrapped": 14553,
    "saline": 28413,
    "comparable": 12435,
    "basil": 14732,
    "gangster": 20067,
    "honestly": 9826,
    "##uld": 21285,
    "botanist": 17098,
    "##mium": 27759,
    "ל": 1253,
    "trait": 18275,
    "[unused423]": 428,
    "convert": 10463,
    "vicious": 13925,
    "kilometers": 7338,
    "heidelberg": 16793,
    "axial": 26819,
    "##ison": 10929,
    "abbott": 14455,
    "reeves": 17891,
    "##貴": 30479,
    "stroke": 6909,
    "deportation": 23702,
    "##unda": 18426,
    "family": 2155,
    "moths": 14885,
    "habitats": 10746,
    "fan": 5470,
    "inland": 9514,
    "symphonic": 18957,
    "ruse": 26307,
    "[unused692]": 697,
    "portland": 6734,
    "kira": 15163,
    "phonetic": 26664,
    "ے": 1310,
    "##urs": 9236,
    "pennant": 22690,
    "elephant": 10777,
    "##6th": 25994,
    "temperament": 26270,
    "tongue": 4416,
    "##ask": 19895,
    "crushed": 10560,
    "rang": 8369,
    "shudder": 18261,
    "furry": 28662,
    "winced": 15574,
    "regis": 20588,
    "##dr": 13626,
    "boredom": 29556,
    "fcc": 14420,
    "muffled": 15783,
    "##analysis": 25902,
    "##gc": 18195,
    "directorate": 13634,
    "concerned": 4986,
    "criterion": 19229,
    "ounce": 19471,
    "effective": 4621,
    "##gas": 12617,
    "intrinsic": 23807,
    "##adi": 17190,
    "enthusiasm": 12024,
    "favorable": 11119,
    "georgie": 20280,
    "armada": 25306,
    "projective": 27473,
    "editors": 10195,
    "winked": 14217,
    "63": 6191,
    "##glass": 15621,
    "rum": 19379,
    "airplanes": 24042,
    "leopold": 12752,
    "fulbright": 26695,
    "earrings": 27212,
    "demonstration": 10467,
    "utopia": 26425,
    "offers": 4107,
    "superman": 10646,
    "judy": 12120,
    "ᄀ": 1455,
    "##tow": 18790,
    "##shore": 19208,
    "organizes": 22013,
    "rebels": 8431,
    "colourful": 26102,
    "os": 9808,
    "drawings": 9254,
    "pony": 15606,
    "emphasized": 13155,
    "attached": 4987,
    "nothin": 24218,
    "unicorn": 21830,
    "deportivo": 23696,
    "spite": 8741,
    "##tens": 25808,
    "phrases": 15672,
    "lanka": 7252,
    "monk": 8284,
    "britannia": 24677,
    "colored": 6910,
    "serial": 7642,
    "resultant": 28573,
    "fivb": 28423,
    "exactly": 3599,
    "##no": 3630,
    "ध": 1326,
    "ी": 1342,
    "prefix": 17576,
    "expanded": 4423,
    "giorgio": 17697,
    "ruiz": 18773,
    "##vah": 21927,
    "worldwide": 4969,
    "##œ": 29674,
    "bind": 14187,
    "soap": 7815,
    "夫": 1813,
    "##omics": 25524,
    "borrow": 17781,
    "evolutionary": 12761,
    "##oa": 10441,
    "emma": 5616,
    "bingo": 27137,
    "punta": 27377,
    "matters": 5609,
    "[unused434]": 439,
    "##line": 4179,
    "nazareth": 27192,
    "aground": 29406,
    "broad": 5041,
    "##kam": 27052,
    "##nian": 11148,
    "resolution": 5813,
    "residents": 3901,
    "laurie": 16450,
    "##zbek": 28733,
    "partnered": 12404,
    "contained": 4838,
    "gardening": 21529,
    "monkey": 10608,
    "debuting": 24469,
    "krishna": 10871,
    "pastures": 24813,
    "stan": 9761,
    "skeletal": 20415,
    "conde": 24707,
    "shooters": 28310,
    "fungi": 15289,
    "##uising": 28580,
    "branching": 23346,
    "continues": 4247,
    "complexes": 15420,
    "reason": 3114,
    "bahadur": 21715,
    "museo": 19713,
    "coffee": 4157,
    "alternating": 15122,
    "##km": 22287,
    "##finger": 20349,
    "addicted": 23042,
    "maldives": 25059,
    "praised": 5868,
    "fatal": 10611,
    "mandela": 26887,
    "similarities": 12319,
    "draining": 19689,
    "scanned": 11728,
    "reunification": 28044,
    "unreasonable": 29205,
    "jasper": 14791,
    "crambidae": 21585,
    "fuel": 4762,
    "##vez": 26132,
    "##uel": 16284,
    "phi": 13569,
    "dramatic": 6918,
    "diversion": 20150,
    "peasant": 14539,
    "centro": 18120,
    "jammed": 21601,
    "##scopic": 24895,
    "##uven": 27346,
    "##cision": 28472,
    "fresno": 20840,
    "203": 18540,
    "##rians": 23543,
    "booklet": 19271,
    "com": 4012,
    "[unused786]": 791,
    "quarterfinal": 29380,
    "remembrance": 19451,
    "reproduce": 21376,
    "flags": 9245,
    "boulder": 13264,
    "mathias": 20494,
    "##ds": 5104,
    "consul": 11801,
    "##sto": 16033,
    "excavation": 16456,
    "wits": 25433,
    "bulgaria": 8063,
    "physical": 3558,
    "slim": 11754,
    "gibraltar": 12272,
    "note": 3602,
    "##phi": 21850,
    "##grin": 24860,
    "contrasted": 22085,
    "sling": 27076,
    "[unused517]": 522,
    "playstation": 9160,
    "afc": 10511,
    "odor": 19255,
    "clusters": 12906,
    "ʐ": 1136,
    "consisted": 5031,
    "catastrophe": 25539,
    "flourishing": 29571,
    "alternative": 4522,
    "invited": 4778,
    "impending": 17945,
    "##fahan": 28975,
    "##hart": 10686,
    "##walk": 17122,
    "harness": 17445,
    "rumours": 19200,
    "choking": 18329,
    "lea": 12203,
    "disclosed": 21362,
    "scary": 12459,
    "պ": 1233,
    "loaned": 13190,
    "polynomials": 28175,
    "violations": 13302,
    "ᵈ": 1498,
    "lex": 17244,
    "proposition": 14848,
    "kiran": 22403,
    "harvest": 11203,
    "briefly": 4780,
    "bartholomew": 19866,
    "##uw": 25974,
    "laid": 4201,
    "ル": 1733,
    "theoretical": 9373,
    "premiership": 11264,
    "moss": 10636,
    "pt": 13866,
    "sprawled": 21212,
    "##–": 30051,
    "dispute": 7593,
    "spinal": 16492,
    "##hc": 16257,
    "if": 2065,
    "se": 7367,
    "##jan": 8405,
    "willem": 18811,
    "mountains": 4020,
    "separate": 3584,
    "chatham": 16727,
    "negligence": 27988,
    "estonia": 10692,
    "rubble": 17538,
    "mustang": 18851,
    "##icated": 17872,
    "##月": 30398,
    "##lea": 19738,
    "berlin": 4068,
    "patrick": 4754,
    "[unused242]": 247,
    "pickering": 27078,
    "##ʐ": 29702,
    "fisheries": 13424,
    "##olate": 19425,
    "##atic": 12070,
    "##erina": 26052,
    "playground": 14705,
    "polgara": 27041,
    "explanation": 7526,
    "chamber": 4574,
    "##sr": 21338,
    "weapons": 4255,
    "consecration": 24730,
    "honor": 3932,
    "tuition": 15413,
    "archers": 23118,
    "swords": 10689,
    "##¦": 29649,
    "##py": 7685,
    "##仮": 30287,
    "paula": 13723,
    "wales": 3575,
    "dina": 26146,
    "warp": 24136,
    "[unused441]": 446,
    "whipped": 12428,
    "referees": 25118,
    "olivier": 14439,
    "##bine": 16765,
    "##bilis": 27965,
    "auditory": 28042,
    "profound": 13769,
    "##ians": 7066,
    "feast": 9831,
    "anand": 18887,
    "authentic": 14469,
    "depict": 17120,
    "composed": 3605,
    "officers": 3738,
    "michele": 15954,
    "dunkirk": 29467,
    "siegfried": 25948,
    "orphaned": 27093,
    "##pers": 7347,
    "spokesman": 14056,
    "noelle": 22336,
    "##cks": 10603,
    "##aran": 20486,
    "retro": 22307,
    "precipitation": 13511,
    "##hips": 19801,
    "⺩": 1632,
    "baltic": 11275,
    "metre": 7924,
    "宮": 1824,
    "gentlemen": 11218,
    "mollusk": 13269,
    "compelled": 15055,
    "##cd": 19797,
    "intrusion": 24554,
    "cholera": 25916,
    "aeronautical": 25010,
    "[unused721]": 726,
    "##etto": 20082,
    "rv": 27634,
    "handling": 8304,
    "govt": 22410,
    "カ": 1700,
    "nfc": 22309,
    "modernist": 19770,
    "sitcom": 13130,
    "[unused248]": 253,
    "dubois": 26258,
    "##chia": 20881,
    "##fi": 8873,
    "[unused816]": 821,
    "##haven": 14650,
    "1944": 3646,
    "त": 1323,
    "relocation": 18344,
    "sachs": 22818,
    "crusader": 25237,
    "croats": 26222,
    "##erland": 22492,
    "sandra": 12834,
    "##ης": 29155,
    "diseases": 7870,
    "dwell": 23120,
    "##oven": 25592,
    "##tead": 14565,
    "understanding": 4824,
    "louvre": 25110,
    "thoughtful": 16465,
    "##nant": 16885,
    "storyline": 9994,
    "tickets": 9735,
    "balcony": 11673,
    "rejoin": 25261,
    "ང": 1427,
    "##nka": 25804,
    "1882": 7131,
    "chord": 13924,
    "landfill": 28382,
    "competence": 22219,
    "thessaloniki": 23162,
    "theorist": 24241,
    "##tha": 8322,
    "မ": 1437,
    "##vic": 7903,
    "cara": 14418,
    "花": 1940,
    "richie": 14411,
    "educated": 5161,
    "knit": 22404,
    "34th": 20460,
    "correlated": 23900,
    "receiver": 8393,
    "swinging": 11820,
    "borne": 15356,
    "phoenix": 6708,
    "artwork": 8266,
    "light": 2422,
    "alfonso": 13591,
    "scattered": 7932,
    "yu": 9805,
    "authority": 3691,
    "##zation": 9276,
    "[unused941]": 946,
    "regards": 12362,
    "##men": 3549,
    "dual": 7037,
    "##yler": 20853,
    "kimberly": 23729,
    "roofs": 15753,
    "##wash": 28556,
    "citation": 11091,
    "##ente": 15781,
    "mali": 16007,
    "charts": 6093,
    "flinched": 19201,
    "napoli": 29485,
    "kitchen": 3829,
    "heroine": 18869,
    "##aman": 23093,
    "ud": 20904,
    "culinary": 20560,
    "vietnam": 5148,
    "done": 2589,
    "damned": 9636,
    "khmer": 19472,
    "[unused187]": 192,
    "ך": 1251,
    "pole": 6536,
    "thornton": 14630,
    "##eca": 19281,
    "navarre": 21260,
    "consult": 23363,
    "##acker": 25418,
    "##zos": 28370,
    "chloride": 19057,
    "anthropologist": 21571,
    "leah": 14188,
    "earnest": 17300,
    "bayou": 24818,
    "surf": 14175,
    "each": 2169,
    "##land": 3122,
    "map": 4949,
    "[unused501]": 506,
    "city": 2103,
    "reject": 15454,
    "consecrated": 12299,
    "robe": 11111,
    "acc": 16222,
    "tightening": 18711,
    "##taro": 28160,
    "##fully": 7699,
    "culminated": 16943,
    "premium": 12882,
    "problem": 3291,
    "[unused183]": 188,
    "beat": 3786,
    "lebanese": 12592,
    "shuddered": 13937,
    "z": 1062,
    "essays": 8927,
    "lectures": 8921,
    "deepened": 20183,
    "cabbage": 28540,
    "harley": 13653,
    "ui": 21318,
    "tune": 8694,
    "mexican": 4916,
    "sector": 4753,
    "wizards": 16657,
    "brightness": 18295,
    "52": 4720,
    "##scan": 29378,
    "##sian": 17043,
    "dal": 17488,
    "instructional": 23219,
    "melinda": 23721,
    "partnerships": 13797,
    "saturated": 23489,
    "karlsruhe": 26660,
    "gladstone": 21765,
    "elbow": 8999,
    "inspect": 22459,
    "posterior": 15219,
    "1753": 23810,
    "[unused559]": 564,
    "slid": 4934,
    "##eth": 11031,
    "##bbs": 17226,
    "indeed": 5262,
    "##mology": 20570,
    "mccain": 19186,
    "vivian": 13801,
    "courtesy": 14571,
    "icao": 18055,
    "ambush": 15283,
    "implement": 10408,
    "outstanding": 5151,
    "##est": 4355,
    "interned": 26345,
    "helix": 25743,
    "excuse": 8016,
    "soothing": 16684,
    "faithful": 11633,
    "[unused247]": 252,
    "christina": 12657,
    "francs": 24313,
    "dating": 5306,
    "tooth": 11868,
    "breathless": 16701,
    "##ack": 8684,
    "beirut": 15335,
    "presiding": 18131,
    "broke": 3631,
    "##tures": 22662,
    "##ural": 11137,
    "runoff": 19550,
    "##ᵘ": 30042,
    "##lam": 10278,
    "factor": 5387,
    "adjoining": 13562,
    "ল": 1373,
    "philosophers": 17586,
    "580": 23712,
    "bears": 6468,
    "£2": 21853,
    "disappointment": 10520,
    "pushed": 3724,
    "confusing": 16801,
    "tributary": 8914,
    "lose": 4558,
    "merit": 7857,
    "kai": 11928,
    "magistrates": 23007,
    "silas": 18553,
    "formed": 2719,
    "times": 2335,
    "##lla": 4571,
    "virgin": 6261,
    "rf": 21792,
    "vent": 18834,
    "aero": 18440,
    "##iae": 19001,
    "covenant": 16077,
    "##ell": 5349,
    "##eri": 11124,
    "##rta": 13320,
    "##⺼": 30159,
    "##tops": 25181,
    "##ニ": 30242,
    "rouge": 12801,
    "coloration": 28757,
    "partnering": 27001,
    "smiling": 5629,
    "impatiently": 19951,
    "burgess": 17754,
    "underwood": 22751,
    "remind": 10825,
    "majesty": 9995,
    "avant": 14815,
    "##illy": 20577,
    "forest": 3224,
    "simply": 3432,
    "blindness": 26290,
    "sf": 16420,
    "##hane": 28006,
    "climbed": 6589,
    "treason": 14712,
    "facades": 28708,
    "##ᶠ": 30047,
    "sports": 2998,
    "あ": 1646,
    "##chman": 19944,
    "streamed": 18498,
    "hitler": 8042,
    "salisbury": 13817,
    "walked": 2939,
    "##tania": 21013,
    "lowell": 15521,
    "anaheim": 20835,
    "roy": 6060,
    "fined": 16981,
    "deter": 28283,
    "[unused388]": 393,
    "##p": 2361,
    "##ins": 7076,
    "fiat": 18550,
    "##永": 30422,
    "summit": 6465,
    "preparatory": 13485,
    "wb": 25610,
    "crested": 25413,
    "handheld": 27291,
    "choral": 14564,
    "sha": 21146,
    "##keeper": 13106,
    "##rries": 26801,
    "0": 1014,
    "resigning": 24642,
    "##tree": 13334,
    "upper": 3356,
    "voices": 5755,
    "##耳": 30463,
    "70": 3963,
    "voted": 5444,
    "##ach": 6776,
    "shelly": 28360,
    "filter": 11307,
    "madagascar": 11934,
    "vents": 28287,
    "null": 19701,
    "##escence": 28964,
    "##tra": 6494,
    "raised": 2992,
    "##空": 30456,
    "smiled": 3281,
    "pune": 16920,
    "yankee": 17652,
    "element": 5783,
    "sales": 4341,
    "protein": 5250,
    "termination": 18287,
    "canteen": 26449,
    "aria": 9342,
    "burundi": 28836,
    "##vs": 15088,
    "kaye": 23686,
    "dispersal": 27602,
    "southern": 2670,
    "sunset": 10434,
    "tyne": 17742,
    "rivers": 5485,
    "susan": 6294,
    "institut": 17126,
    "##uba": 19761,
    "阿": 1971,
    "tribe": 5917,
    "fairfield": 18986,
    "##iere": 21253,
    "urging": 14328,
    "musical": 3315,
    "[unused66]": 67,
    "belfast": 10330,
    "tap": 11112,
    "##nitz": 22792,
    "trade": 3119,
    "excessive": 11664,
    "す": 1658,
    "##onale": 22823,
    "baronetcy": 25071,
    "ends": 4515,
    "ᅩ": 1475,
    "buses": 7793,
    "one": 2028,
    "##mad": 25666,
    "miocene": 26926,
    "bean": 14068,
    "orton": 25161,
    "vector": 9207,
    "jakob": 19108,
    "##fl": 10258,
    "hindus": 18221,
    "delivers": 18058,
    "contain": 5383,
    "wei": 11417,
    "westphalia": 22952,
    "emission": 15760,
    "##野": 30489,
    "netting": 26909,
    "between": 2090,
    "cinema": 5988,
    "reserves": 8269,
    "bye": 9061,
    "##rita": 17728,
    "australian": 2827,
    "rectangular": 10806,
    "vivo": 24269,
    "##tain": 18249,
    "stance": 11032,
    "keynes": 22152,
    "transmitter": 11659,
    "##sw": 26760,
    "togo": 23588,
    "##cide": 27082,
    "edison": 17046,
    "貝": 1952,
    "##ppel": 27877,
    "microphone": 15545,
    "ranking": 5464,
    "lease": 10084,
    "72": 5824,
    "temps": 29023,
    "discrete": 16246,
    "middleton": 17756,
    "miss": 3335,
    "pedal": 15749,
    "queens": 8603,
    "ligand": 27854,
    "reluctant": 11542,
    "suppressed": 13712,
    "dismissed": 7219,
    "theta": 23963,
    "proteins": 8171,
    "dillon": 14602,
    "aside": 4998,
    "##guard": 18405,
    "galaxies": 21706,
    "##lion": 18964,
    "##edge": 24225,
    "desire": 4792,
    "whereby": 13557,
    "languages": 4155,
    "1936": 4266,
    "##agne": 25440,
    "prediction": 17547,
    "ruins": 8435,
    "engines": 5209,
    "estate": 3776,
    "fast": 3435,
    "glaring": 16124,
    "josie": 15293,
    "amy": 6864,
    "ib": 21307,
    "mosaic": 16061,
    "facilitated": 19601,
    "##ischen": 24488,
    "香": 1979,
    "##osta": 28696,
    "141": 15471,
    "band": 2316,
    "assets": 7045,
    "corsica": 27047,
    "reins": 19222,
    "companions": 11946,
    "diplomats": 23473,
    "commandos": 25144,
    "expansion": 4935,
    "investor": 14316,
    "##opers": 27342,
    "sponsor": 10460,
    "textures": 29343,
    "##社": 30450,
    "leung": 26037,
    "boardwalk": 29496,
    "childhood": 5593,
    "stiffly": 27499,
    "##ken": 7520,
    "consuming": 15077,
    "brute": 26128,
    "choirs": 24743,
    "specialist": 8325,
    "denim": 26762,
    "michigan": 4174,
    "ao": 20118,
    "lynne": 26938,
    "[unused188]": 193,
    "##oon": 7828,
    "turtle": 13170,
    "conserve": 27749,
    "commentators": 15957,
    "ns": 24978,
    "central": 2430,
    "מ": 1255,
    "##ates": 8520,
    "32nd": 20628,
    "[unused329]": 334,
    "queen": 3035,
    "brandy": 17951,
    "bearing": 7682,
    "hideout": 29588,
    "fang": 15197,
    "campeonato": 17675,
    "kaitlyn": 28584,
    "##es": 2229,
    "##inated": 15833,
    "worms": 16253,
    "remember": 3342,
    "stabilization": 28715,
    "[unused3]": 4,
    "roach": 20997,
    "##erian": 27549,
    "martha": 9246,
    "##uppe": 29547,
    "obstacle": 18355,
    "arthritis": 27641,
    "##vor": 14550,
    "manny": 16320,
    "range": 2846,
    "specialists": 15744,
    "[unused715]": 720,
    "barnett": 20073,
    "efficiently": 18228,
    "master": 3040,
    "furnishings": 23127,
    "630": 23609,
    "explicitly": 12045,
    "fatalities": 20871,
    "sniffing": 27646,
    "##ₑ": 30090,
    "...": 2133,
    "fielded": 20988,
    "statehood": 28000,
    "bce": 10705,
    "hunting": 5933,
    "##mac": 22911,
    "rates": 6165,
    "thief": 12383,
    "hostel": 21071,
    "forbade": 27315,
    "horrible": 9202,
    "##ᄉ": 29997,
    "[unused254]": 259,
    "##oom": 17650,
    "beaming": 27910,
    "##sir": 29481,
    "aaa": 13360,
    "ambition": 16290,
    "1910": 4976,
    "gibbons": 22194,
    "##ain": 8113,
    "tiny": 4714,
    "stacey": 19997,
    "##tative": 27453,
    "zen": 16729,
    "histoire": 20088,
    "木": 1875,
    "established": 2511,
    "omitted": 16647,
    "##三": 30267,
    "cora": 17195,
    "swimming": 5742,
    "fantasy": 5913,
    "chancel": 16482,
    "affectionately": 28734,
    "##氷": 30421,
    "sichuan": 20980,
    "##nz": 14191,
    "##phile": 24862,
    "##ট": 29895,
    "[unused862]": 867,
    "sul": 21396,
    "rule": 3627,
    "##ened": 6675,
    "midfield": 23071,
    "clients": 7846,
    "##rien": 23144,
    "luck": 6735,
    "##atz": 20501,
    "camilla": 26902,
    "blinds": 28279,
    "##rit": 14778,
    "ferreira": 26135,
    "maneuver": 17519,
    "resides": 11665,
    "visitors": 5731,
    "##elle": 14774,
    "ே": 1398,
    "remain": 3961,
    "##ical": 7476,
    "victor": 5125,
    "legislative": 4884,
    "huskies": 29471,
    "transcribed": 26223,
    "scowl": 19981,
    "concerns": 5936,
    "hassan": 13222,
    "##т": 22919,
    "galaxy": 9088,
    "rr": 25269,
    "49": 4749,
    "activists": 10134,
    "##│": 30143,
    "you": 2017,
    "##mage": 26860,
    "√": 1600,
    "##wood": 3702,
    "slide": 7358,
    "claws": 10702,
    "threshold": 11207,
    "hannibal": 24181,
    "##su": 6342,
    "strangled": 21384,
    "variance": 23284,
    "evolving": 20607,
    "##ppe": 21512,
    "assign": 23911,
    "##sop": 28793,
    "amsterdam": 7598,
    "awarding": 21467,
    "##unced": 22392,
    "touchdowns": 10183,
    "##rant": 17884,
    "mountainous": 14897,
    "demonstrators": 28337,
    "[unused292]": 297,
    "weakening": 22031,
    "brutal": 12077,
    "elongated": 17876,
    "second": 2117,
    "車": 1954,
    "phosphorus": 25473,
    "influence": 3747,
    "brigadier": 9900,
    "ru": 21766,
    "1683": 27414,
    "uta": 28981,
    "##rons": 28212,
    "ford": 4811,
    "##king": 6834,
    "wire": 7318,
    "surveys": 12265,
    "bourgeois": 22846,
    "participates": 17257,
    "##tino": 25690,
    "[unused92]": 93,
    "annals": 16945,
    "decreases": 17913,
    "matter": 3043,
    "orb": 19607,
    "grants": 8624,
    "##urer": 27595,
    "synagogue": 13067,
    "[unused932]": 937,
    "close": 2485,
    "##logie": 27095,
    "peripheral": 15965,
    "opium": 21075,
    "sms": 22434,
    "revenge": 7195,
    "cis": 20199,
    "hardware": 8051,
    "icc": 16461,
    "artworks": 22000,
    "##erted": 28728,
    "1894": 6539,
    "##boarding": 21172,
    "anton": 9865,
    "[unused48]": 49,
    "mace": 19382,
    "1689": 22685,
    "911": 19989,
    "##card": 11522,
    "tanya": 19956,
    "attends": 23933,
    "invention": 11028,
    "milford": 22622,
    "superstar": 18795,
    "muriel": 27616,
    "##rgeon": 28242,
    "##ね": 30196,
    "train": 3345,
    "1850": 7973,
    "risking": 26875,
    "kowalski": 28874,
    "heads": 4641,
    "tsunami": 19267,
    "sheffield": 8533,
    "[unused512]": 517,
    "pupil": 11136,
    "sutherland": 14274,
    "syria": 7795,
    "春": 1867,
    "elsewhere": 6974,
    "1865": 6725,
    "brains": 14332,
    "sultan": 7544,
    "marc": 7871,
    "turnout": 15512,
    "starr": 14330,
    "gt": 14181,
    "sabotage": 20223,
    "rabbis": 25602,
    "violence": 4808,
    "[unused516]": 521,
    "1996": 2727,
    "sitting": 3564,
    "hesitated": 9369,
    "clement": 12223,
    "genuinely": 15958,
    "dai": 18765,
    "garlic": 20548,
    "##onate": 21149,
    "##lander": 22691,
    "[unused769]": 774,
    "plates": 7766,
    "foods": 9440,
    "52nd": 26898,
    "##^": 29637,
    "bobo": 27418,
    "##lvis": 28530,
    "canoe": 14347,
    "schleswig": 21173,
    "recommends": 26021,
    "fortune": 7280,
    "##llie": 23697,
    "octopus": 24318,
    "##rda": 13639,
    "demanding": 9694,
    "italians": 16773,
    "##lux": 25148,
    "breakdown": 12554,
    "fate": 6580,
    "muscles": 6650,
    "charles": 2798,
    "succeeds": 21645,
    "staggering": 26233,
    "##onga": 26356,
    "provision": 9347,
    "commuted": 26704,
    "tide": 10401,
    "mathematicians": 29374,
    "transformers": 19081,
    "boys": 3337,
    "##jic": 25008,
    "excellence": 8012,
    "probation": 19703,
    "export": 9167,
    "paralympics": 15600,
    "defamation": 27652,
    "brigades": 14589,
    "coma": 16571,
    "bohemia": 16799,
    "imperative": 23934,
    "contractor": 13666,
    "substituted": 17316,
    "aegean": 27198,
    "305": 20405,
    "ponder": 29211,
    "##heater": 27847,
    "187": 19446,
    "button": 6462,
    "israel": 3956,
    "recounts": 23412,
    "##iation": 18963,
    "314": 26257,
    "mortar": 14335,
    "bugs": 12883,
    "idle": 18373,
    "sticking": 13423,
    "##hog": 25852,
    "survivors": 8643,
    "obliged": 14723,
    "##カ": 30226,
    "##ality": 23732,
    "resistance": 5012,
    "1630": 24994,
    "##coat": 16531,
    "willard": 19138,
    "consonant": 18265,
    "statistics": 6747,
    "##া": 29914,
    "wa": 11333,
    "penthouse": 22855,
    "##rba": 28483,
    "mandal": 24373,
    "magnus": 10045,
    "useful": 6179,
    "[unused687]": 692,
    "eyebrows": 8407,
    "twitter": 10474,
    "##ₜ": 30099,
    "##bi": 5638,
    "trevor": 8672,
    "##tos": 13122,
    "scholarship": 6566,
    "[unused351]": 356,
    "graduate": 4619,
    "scarce": 18782,
    "hemisphere": 14130,
    "##weiler": 22384,
    "fremont": 22550,
    "colossal": 29523,
    "##zily": 28431,
    "patience": 11752,
    "##ք": 29786,
    "##广": 30368,
    "clues": 15774,
    "accident": 4926,
    "gave": 2435,
    "curving": 21439,
    "##rosis": 29166,
    "mob": 11240,
    "##br": 19892,
    "discipline": 9009,
    "pensacola": 26073,
    "circling": 18519,
    "##章": 30458,
    "##ingly": 15787,
    "##redo": 23417,
    "cassandra": 15609,
    "handles": 16024,
    "goo": 27571,
    "##ˤ": 29719,
    "tak": 27006,
    "words": 2616,
    "prefers": 19233,
    "shy": 11004,
    "serials": 28172,
    "marshes": 19257,
    "[unused230]": 235,
    "from": 2013,
    "ད": 1428,
    "replacing": 6419,
    "glided": 26936,
    "##mot": 18938,
    "mum": 12954,
    "vic": 10967,
    "laughs": 11680,
    "beverage": 19645,
    "pedestrian": 14662,
    "##rew": 15603,
    "trying": 2667,
    "[unused531]": 536,
    "supports": 6753,
    "constellation": 15300,
    "direct": 3622,
    "inception": 12149,
    "holloway": 20977,
    "1886": 6929,
    "ray": 4097,
    "destruction": 6215,
    "soils": 13622,
    "flicking": 26259,
    "torches": 24711,
    "[unused343]": 348,
    "business": 2449,
    "merger": 7660,
    "equator": 26640,
    "simulated": 23599,
    "interface": 8278,
    "santos": 11053,
    "arrondissement": 20522,
    "[unused346]": 351,
    "##ten": 6528,
    "tribute": 7050,
    "vr": 27830,
    "groin": 20092,
    "[unused319]": 324,
    "1907": 5528,
    "papal": 12156,
    "##vite": 25217,
    "count": 4175,
    "restrained": 19868,
    "messages": 7696,
    "##tized": 23355,
    "reconstructed": 14858,
    "pits": 14496,
    "campos": 26925,
    "potential": 4022,
    "tending": 25069,
    "royalist": 20796,
    "##र": 29869,
    "published": 2405,
    "sebastien": 28328,
    "##olic": 23518,
    "christy": 21550,
    "limit": 5787,
    "tubular": 25147,
    "tapping": 15135,
    "contestant": 10832,
    "behavioral": 14260,
    "[unused785]": 790,
    "romney": 19615,
    "reviewed": 8182,
    "##ς": 19579,
    "jonny": 26937,
    "configuration": 9563,
    "trident": 26515,
    "edgar": 9586,
    "blacks": 10823,
    "##zier": 21548,
    "surveyor": 17169,
    "##tase": 18260,
    "##oya": 18232,
    "paisley": 23321,
    "spectacular": 12656,
    "durable": 25634,
    "scholar": 6288,
    "recall": 9131,
    "crust": 19116,
    "clearer": 24509,
    "electronic": 4816,
    "torino": 24737,
    "partnership": 5386,
    "129": 14378,
    "mistakenly": 20706,
    "otago": 21831,
    "cinematographer": 19245,
    "##zano": 24147,
    "খ": 1354,
    "bedside": 19475,
    "shrugged": 6345,
    "abd": 19935,
    "hunger": 9012,
    "va": 12436,
    "岡": 1832,
    "exercising": 28428,
    "dust": 6497,
    "quentin": 15969,
    "archie": 13255,
    "odessa": 19693,
    "history": 2381,
    "ass": 4632,
    "millionaire": 19965,
    "##евич": 22646,
    "repealed": 21492,
    "fredrik": 25454,
    "##mund": 25574,
    "britney": 29168,
    "kamal": 21911,
    "fooled": 25857,
    "thoughts": 4301,
    "##itia": 29050,
    "##lices": 29146,
    "##eson": 21421,
    "エ": 1698,
    "##ffi": 26989,
    "shirley": 11280,
    "##oth": 14573,
    "##木": 30401,
    "synonymous": 22594,
    "music": 2189,
    "oz": 11472,
    "measured": 7594,
    "#": 1001,
    "translit": 28468,
    "ط": 1286,
    "awake": 8300,
    "jokes": 13198,
    "##kovic": 14733,
    "##mic": 7712,
    "ax": 22260,
    "@": 1030,
    "zoe": 11199,
    "lens": 10014,
    "shoving": 15866,
    "litres": 25783,
    "চ": 1356,
    "editor": 3559,
    "##ital": 18400,
    "##uis": 27020,
    "rowing": 12037,
    "haryana": 23261,
    "stimulating": 27295,
    "alexia": 21683,
    "ominous": 23504,
    "##down": 7698,
    "##ก": 29945,
    "secured": 7119,
    "immigrant": 11560,
    "ワ": 1736,
    "massey": 21402,
    "psi": 17816,
    "vowels": 15260,
    "thieves": 15862,
    "##umi": 12717,
    "cites": 17248,
    "brunswick": 9192,
    "councillors": 13189,
    "swimmers": 21669,
    "telephone": 7026,
    "asleep": 6680,
    "##yah": 17560,
    "label": 3830,
    "claude": 8149,
    "lieutenant": 3812,
    "cm": 4642,
    "forbes": 10822,
    "marched": 9847,
    "林": 1881,
    "maureen": 19167,
    "##nikov": 22576,
    "reasonable": 9608,
    "##print": 16550,
    "1876": 7326,
    "grazing": 15400,
    "hawke": 24882,
    "li": 5622,
    "fridays": 26587,
    "pension": 11550,
    "bahamas": 17094,
    "sterling": 10933,
    "towed": 18948,
    "binding": 8031,
    "##ban": 8193,
    "bike": 7997,
    "unexpected": 9223,
    "##powering": 23948,
    "ₖ": 1565,
    "1863": 6899,
    "freeman": 11462,
    "echoes": 17659,
    "[unused178]": 183,
    "precursor": 14988,
    "##test": 22199,
    "##plicity": 27293,
    "##cytes": 27321,
    "##dermott": 29370,
    "heard": 2657,
    "substantially": 12381,
    "shu": 18454,
    "##anus": 20849,
    "antoinette": 28429,
    "թ": 1224,
    "##gur": 27390,
    "dynasties": 23014,
    "herself": 2841,
    "##kaya": 20718,
    "fashioned": 13405,
    "lavender": 20920,
    "hardship": 26479,
    "sniffed": 18013,
    "[unused855]": 860,
    "yet": 2664,
    "greece": 5483,
    "breuning": 18177,
    "favourable": 18731,
    "##tm": 21246,
    "bravery": 16534,
    "pan": 6090,
    "##cki": 18009,
    "commerce": 6236,
    "26": 2656,
    "##marks": 27373,
    "bet": 6655,
    "reside": 13960,
    "dunlop": 27458,
    "armagh": 24678,
    "##ches": 8376,
    "entered": 3133,
    "##ker": 5484,
    "beyond": 3458,
    "asked": 2356,
    "##ller": 10820,
    "monarchy": 12078,
    "antarctica": 12615,
    "suppliers": 20141,
    "##arns": 23549,
    "inwardly": 28710,
    "wai": 23701,
    "clothes": 4253,
    "vane": 23334,
    "##下": 30269,
    "carried": 3344,
    "waterfront": 16317,
    "isabelle": 13942,
    "##maid": 28478,
    "dumped": 14019,
    "mainstream": 7731,
    "[unused75]": 76,
    "quote": 14686,
    "##mple": 23344,
    "##miento": 28883,
    "fluent": 19376,
    "[unused9]": 10,
    "blackberry": 25935,
    "confrontation": 13111,
    "##morphic": 18078,
    "##rent": 22787,
    "bonus": 6781,
    "order": 2344,
    "##rge": 20800,
    "##法": 30427,
    "groan": 13001,
    "陳": 1972,
    "cs": 20116,
    "321": 24030,
    "##inski": 19880,
    "predicted": 10173,
    "##64": 21084,
    "ᵏ": 1501,
    "##tag": 15900,
    "cathedral": 5040,
    "##nob": 25083,
    "occupy": 11494,
    "disclosure": 19380,
    "tradition": 4535,
    "##cliffe": 18115,
    "xinjiang": 25904,
    "ラ": 1731,
    "nut": 17490,
    "conserved": 19995,
    "terrorist": 9452,
    "infinite": 10709,
    "claimed": 3555,
    "straightened": 11168,
    "[unused560]": 565,
    "romano": 22070,
    "reacting": 24868,
    "medalist": 12968,
    "##lda": 15150,
    "folly": 26272,
    "★": 1620,
    "tony": 4116,
    "##ivity": 7730,
    "playback": 18245,
    "blanchard": 26870,
    "ripped": 9157,
    "allows": 4473,
    "informing": 21672,
    "purification": 28406,
    "selection": 4989,
    "respecting": 27818,
    "massage": 21881,
    "dodd": 21258,
    "##tious": 20771,
    "##ye": 6672,
    "ipswich": 15435,
    "demonic": 23170,
    "primetime": 18474,
    "successfully": 5147,
    "woodlands": 19268,
    "calmed": 20869,
    "##wes": 18192,
    "1923": 4927,
    "processors": 18017,
    "bright": 4408,
    "entrepreneurship": 20213,
    "newt": 25597,
    "malcolm": 8861,
    "bucket": 13610,
    "wayne": 6159,
    "rebuilding": 14584,
    "rite": 14034,
    "correction": 18140,
    "##gical": 26715,
    "errors": 10697,
    "soloists": 27516,
    "3rd": 3822,
    "secretly": 10082,
    "incomes": 29373,
    "kit": 8934,
    "⺼": 1633,
    "fleming": 13779,
    "rudolph": 18466,
    "destroyer": 9799,
    "am": 2572,
    "1820s": 28504,
    "sept": 17419,
    "busted": 23142,
    "invading": 17657,
    "##oda": 13390,
    "civilized": 25825,
    "peugeot": 26385,
    "latest": 6745,
    "file": 5371,
    "lawsuit": 9870,
    "slightest": 15989,
    "dinamo": 22306,
    "writ": 25697,
    "elect": 11322,
    "lahore": 15036,
    "willingly": 18110,
    "harmonies": 28594,
    "marries": 19941,
    "morales": 17103,
    "pregnant": 6875,
    "firth": 25138,
    "liechtenstein": 26500,
    "forces": 2749,
    "##person": 27576,
    "ci": 25022,
    "schwarz": 29058,
    "lifeless": 22185,
    "investigative": 15025,
    "vigorous": 21813,
    "promises": 10659,
    "##а": 10260,
    "entropy": 23077,
    "ipad": 25249,
    "regatta": 26848,
    "occurrences": 27247,
    "airmen": 29437,
    "mccarthy": 12584,
    "dow": 23268,
    "views": 5328,
    "remained": 2815,
    "profoundly": 28089,
    "gael": 28151,
    "ರ": 1401,
    "neglected": 15486,
    "bug": 11829,
    "ebook": 26885,
    "о": 1193,
    "drunk": 7144,
    "cheer": 15138,
    "goldman": 17765,
    "##ege": 24746,
    "nara": 27544,
    "##tat": 29336,
    "##ami": 10631,
    "prop": 17678,
    "controlling": 9756,
    "startling": 19828,
    "##fera": 27709,
    "rb": 21144,
    "##urst": 29402,
    "birmingham": 6484,
    "fulfilling": 21570,
    "stroked": 11699,
    "206": 18744,
    "georgetown": 12982,
    "##iny": 24300,
    "1086": 28196,
    "shut": 3844,
    "##eo": 8780,
    "##good": 24146,
    "1624": 28531,
    "holster": 29447,
    "prevalence": 20272,
    "willow": 11940,
    "##yla": 23943,
    "disgust": 12721,
    "##hee": 21030,
    "wipe": 13387,
    "lest": 26693,
    "a": 1037,
    "##sdale": 15145,
    "##els": 9050,
    "##hini": 20535,
    "bathed": 24614,
    "swami": 20087,
    "automobiles": 19207,
    "institute": 2820,
    "oxfordshire": 20124,
    "##hae": 25293,
    "introduces": 13999,
    "countered": 17970,
    "umar": 27981,
    "burn": 6402,
    "grandson": 7631,
    "angles": 12113,
    "##oria": 11069,
    "[unused307]": 312,
    "po": 13433,
    "chests": 28717,
    "echo": 9052,
    "enamel": 29484,
    "headed": 3753,
    "[unused970]": 975,
    "captives": 21496,
    "thick": 4317,
    "helsinki": 12331,
    "infrastructure": 6502,
    "offender": 25042,
    "henry": 2888,
    "railways": 7111,
    "turkic": 22926,
    "bafta": 22284,
    "exile": 8340,
    "recent": 3522,
    "##tenberg": 21806,
    "[unused963]": 968,
    "##sities": 24279,
    "rampant": 25883,
    "tatum": 25913,
    "appreciated": 12315,
    "publish": 10172,
    "lgbt": 12010,
    "inappropriate": 15884,
    "edited": 5493,
    "annual": 3296,
    "temperatures": 7715,
    "novel": 3117,
    "amphibious": 16182,
    "##cene": 17968,
    "true": 2995,
    "resign": 12897,
    "##gled": 11533,
    "eased": 10987,
    "print": 6140,
    "##ab": 7875,
    "202": 16798,
    "1605": 28202,
    "sharma": 14654,
    "garner": 18661,
    "righteous": 19556,
    "##ffs": 21807,
    "universite": 22176,
    "squares": 14320,
    "##fast": 24333,
    "angled": 18756,
    "vocal": 5554,
    "plead": 25803,
    "admiration": 17005,
    "added": 2794,
    "company": 2194,
    "ferry": 7115,
    "matthias": 17885,
    "##kee": 20553,
    "indictment": 24265,
    "popular": 2759,
    "##vate": 16952,
    "transaction": 12598,
    "cambrian": 29228,
    "mask": 7308,
    "∗": 1598,
    "##ュ": 30255,
    "civil": 2942,
    "respectful": 26438,
    "jett": 22962,
    "overtime": 12253,
    "complexion": 28838,
    "38th": 22051,
    "certification": 10618,
    "aggregator": 24089,
    "soviets": 15269,
    "##fine": 23460,
    "knowledge": 3716,
    "edge": 3341,
    "edouard": 21627,
    "##gi": 5856,
    "swirl": 28693,
    "provisional": 10864,
    "slipped": 5707,
    "##flower": 14156,
    "[unused644]": 649,
    "exiles": 27127,
    "գ": 1221,
    "siegel": 27996,
    "corpus": 13931,
    "vibe": 21209,
    "arms": 2608,
    "granted": 4379,
    "[unused795]": 800,
    "doping": 23799,
    "zhou": 14367,
    "##դ": 29769,
    "suspended": 6731,
    "triad": 25355,
    "rosewood": 29528,
    "pillow": 10005,
    "skipper": 23249,
    "trust": 3404,
    "##iza": 21335,
    "empress": 10248,
    "unlike": 4406,
    "go": 2175,
    "picket": 28972,
    "##dran": 24914,
    "##ears": 26492,
    "##ps": 4523,
    "washington": 2899,
    "##স": 29912,
    "##idal": 16975,
    "spit": 13183,
    "297": 27502,
    "##gizing": 28660,
    "[unused961]": 966,
    "##ub": 12083,
    "collapsed": 7798,
    "spaniards": 20999,
    "benedictine": 21139,
    "turns": 4332,
    "jews": 5181,
    "adaptations": 17241,
    "horses": 5194,
    "##nder": 11563,
    "wheelchair": 13204,
    "uncover": 26944,
    "3d": 7605,
    "leslie": 8886,
    "chemicals": 12141,
    "statue": 6231,
    "gerald": 9659,
    "wee": 16776,
    "sobs": 21503,
    "##izing": 6026,
    "rag": 17768,
    "surely": 7543,
    "botanic": 27761,
    "waste": 5949,
    "furniture": 7390,
    "##ville": 3077,
    "cpi": 28780,
    "nests": 17415,
    "input": 7953,
    "##gram": 13113,
    "##urse": 28393,
    "1788": 15622,
    "##lal": 13837,
    "emblem": 16199,
    "crap": 10231,
    "mail": 5653,
    "penny": 10647,
    "orchid": 15573,
    "frankenstein": 22478,
    "coinage": 25396,
    "raul": 16720,
    "occur": 5258,
    "cola": 15270,
    "betray": 20895,
    "occasions": 6642,
    "##風": 30503,
    "##erate": 22139,
    "referendum": 9782,
    "bribery": 27748,
    "anti": 3424,
    "diagnosed": 11441,
    "##ws": 9333,
    "tyrant": 26508,
    "jenny": 8437,
    "sh": 14021,
    "##ium": 5007,
    "[unused616]": 621,
    "partridge": 26079,
    "rulers": 11117,
    "fulton": 17049,
    "delivering": 12771,
    "garments": 21902,
    "alvin": 17348,
    "both": 2119,
    "fling": 27655,
    "service": 2326,
    "##uto": 16161,
    "##hawks": 16043,
    "uber": 19169,
    "##hyl": 29598,
    "hailed": 16586,
    "energetic": 18114,
    "formulation": 20219,
    "almeida": 29555,
    "phylogenetic": 23192,
    "huffington": 26149,
    "due": 2349,
    "ups": 11139,
    "bachelor": 5065,
    "alberta": 7649,
    "##iting": 15402,
    "##ress": 8303,
    "##elling": 23918,
    "damaged": 5591,
    "darting": 24567,
    "mechanical": 6228,
    "ι": 1163,
    "axes": 19589,
    "dash": 11454,
    "rodeo": 18936,
    "beforehand": 25828,
    "##crat": 23185,
    "duel": 14216,
    "noun": 15156,
    "storage": 5527,
    "abbreviation": 22498,
    "pyrenees": 22696,
    "য": 1371,
    "’": 1521,
    "montreal": 5548,
    "1000": 6694,
    "acoustic": 6490,
    "decoration": 11446,
    "pepsi": 27237,
    "scoring": 4577,
    "ᴬ": 1490,
    "qualifier": 10981,
    "redesignated": 11836,
    "blaming": 24114,
    "mecca": 21340,
    "##pen": 11837,
    "capability": 10673,
    "fountain": 9545,
    "minimum": 6263,
    "tian": 23401,
    "ken": 6358,
    "rifle": 5883,
    "outlaws": 23107,
    "raion": 24235,
    "##ث": 29818,
    "daisy": 10409,
    "##istic": 6553,
    "lightly": 8217,
    "1858": 8517,
    "mickey": 11021,
    "bleak": 21657,
    "walsall": 29054,
    "poetry": 4623,
    "heterosexual": 28229,
    "##ʋ": 29699,
    "##ro": 3217,
    "involvement": 6624,
    "henri": 8863,
    "consent": 9619,
    "talbot": 14838,
    "##大": 30336,
    "cleavage": 28691,
    "tip": 5955,
    "mankind": 14938,
    "##iest": 10458,
    "enough": 2438,
    "springfield": 10493,
    "cypress": 22183,
    "gabby": 27183,
    "snapped": 5941,
    "##cci": 14693,
    "##ian": 2937,
    "##ovic": 9142,
    "coefficient": 19064,
    "##€": 30102,
    "ee": 25212,
    "1853": 8933,
    "1860s": 15914,
    "depleted": 22595,
    "##sko": 21590,
    "canterbury": 9976,
    "inauguration": 17331,
    "ე": 1442,
    "richly": 26502,
    "##ო": 29986,
    "leo": 6688,
    "##wind": 11101,
    "que": 10861,
    "『": 1643,
    "clearly": 4415,
    "peg": 25039,
    "dixie": 18910,
    "hopper": 20517,
    "orgasm": 13892,
    "prove": 6011,
    "[unused889]": 894,
    "drilling": 15827,
    "amc": 21962,
    "obsidian": 29042,
    "stabilize": 27790,
    "modernization": 20181,
    "roma": 12836,
    "bao": 25945,
    "fraser": 9443,
    "assembled": 9240,
    "purge": 24694,
    "[unused729]": 734,
    "greenberg": 24190,
    "supervisor": 12366,
    "3000": 11910,
    "opposed": 4941,
    "wolfgang": 13865,
    "autobiography": 10828,
    "##nberg": 11144,
    "##bol": 14956,
    "cylindrical": 18797,
    "newer": 10947,
    "presided": 15506,
    "ghz": 29066,
    "##anna": 25789,
    "##pathy": 20166,
    "teenager": 10563,
    "macau": 16878,
    "sick": 5305,
    "wellington": 8409,
    "##kins": 14322,
    "mercenaries": 19331,
    "accolades": 27447,
    "delicious": 12090,
    "br": 7987,
    "exotic": 12564,
    "probe": 15113,
    "poorer": 27196,
    "##主": 30273,
    "closed": 2701,
    "tay": 28117,
    "provided": 3024,
    "salim": 27490,
    "fairness": 26935,
    "##थ": 29860,
    "eps": 20383,
    "affiliates": 18460,
    "magical": 8687,
    "##gong": 17036,
    "usb": 18833,
    "jewel": 13713,
    "incorporates": 12374,
    "chao": 22455,
    "[unused649]": 654,
    "scratched": 15047,
    "puzzles": 19672,
    "grains": 17588,
    "reclaim": 24104,
    "trondheim": 26331,
    "develops": 11791,
    "believing": 8929,
    "[unused958]": 963,
    "##ulus": 11627,
    "continent": 9983,
    "##field": 3790,
    "folds": 15439,
    "cabaret": 19685,
    "blair": 10503,
    "burying": 20491,
    "abstract": 10061,
    "##weather": 28949,
    "pagan": 14318,
    "##•": 30063,
    "poured": 8542,
    "—": 1517,
    "patient": 5776,
    "shepard": 22189,
    "##thic": 23048,
    "condemn": 28887,
    "brewing": 16005,
    "ramps": 24943,
    "anomaly": 28685,
    "##ees": 10285,
    "dominic": 11282,
    "vernon": 11447,
    "##cated": 12921,
    "feather": 15550,
    "copies": 4809,
    "captains": 15755,
    "walnut": 18489,
    "coe": 24873,
    "proving": 13946,
    "vanderbilt": 17066,
    "pieces": 4109,
    "topped": 9370,
    "##mmer": 15810,
    "##iled": 18450,
    "modular": 19160,
    "eight": 2809,
    "leach": 24520,
    "klaus": 16536,
    "1776": 13963,
    "limits": 6537,
    "emmy": 10096,
    "ъ": 1205,
    "mating": 15100,
    "foxes": 24623,
    "witnessed": 9741,
    "owens": 14824,
    "decisions": 6567,
    "[unused451]": 456,
    "rumored": 22710,
    "loch": 14941,
    "contains": 3397,
    "elaine": 15263,
    "##wu": 16050,
    "grid": 8370,
    "replicate": 28024,
    "responsibility": 5368,
    "amplitude": 22261,
    "tigers": 7600,
    "drop": 4530,
    "cradle": 18293,
    "[unused930]": 935,
    "turmoil": 17930,
    "彳": 1845,
    "savings": 10995,
    "combination": 5257,
    "robots": 13507,
    "revolving": 24135,
    "prior": 3188,
    "##lls": 12718,
    "crept": 13147,
    "potion": 26722,
    "returned": 2513,
    "registry": 15584,
    "offs": 12446,
    "imaginary": 15344,
    "operates": 5748,
    "##gement": 20511,
    "山": 1831,
    "two": 2048,
    "dividing": 16023,
    "##ᵍ": 30036,
    "##dled": 20043,
    "##lei": 23057,
    "itv": 11858,
    "desperate": 7143,
    "irony": 19728,
    "sensor": 13617,
    "pipe": 8667,
    "wary": 15705,
    "instinct": 12753,
    "strangely": 13939,
    "智": 1869,
    "dunedin": 22020,
    "##metry": 24327,
    "ₗ": 1566,
    "trading": 6202,
    "norwich": 12634,
    "##英": 30467,
    "brett": 12049,
    "##ested": 17944,
    "jong": 18528,
    "layer": 6741,
    "latch": 25635,
    "地": 1802,
    "ⁿ": 1546,
    "[unused330]": 335,
    "arid": 17511,
    "ladder": 10535,
    "1930s": 5687,
    "curly": 17546,
    "chang": 11132,
    "##fusion": 20523,
    "jenks": 15119,
    "[unused44]": 45,
    "occurs": 5158,
    "cup": 2452,
    "##via": 9035,
    "smiley": 27420,
    "chose": 4900,
    "picking": 8130,
    "icy": 13580,
    "revealed": 3936,
    "exterior": 8829,
    "din": 11586,
    "lorraine": 13895,
    "gi": 21025,
    "designed": 2881,
    "dismissing": 28913,
    "ล": 1418,
    "##ा": 29876,
    "##μ": 29728,
    "pivotal": 20369,
    "facility": 4322,
    "linguistics": 15397,
    "sanford": 21153,
    "howled": 27489,
    "questions": 3980,
    "goods": 5350,
    "kia": 27005,
    "[unused425]": 430,
    "[unused562]": 567,
    "shi": 11895,
    "midtown": 27219,
    "ebony": 27680,
    "broughton": 29187,
    "pia": 24624,
    "##ally": 3973,
    "ᄇ": 1460,
    "##tera": 14621,
    "masjid": 27779,
    "robertson": 9923,
    "goa": 15244,
    "apostles": 19178,
    "transvaal": 28336,
    "tess": 15540,
    "hq": 16260,
    "hellenic": 23122,
    "amnesia": 29222,
    "movie": 3185,
    "##ந": 29922,
    "mattered": 13836,
    "##ide": 5178,
    "gunnery": 27919,
    "nonstop": 25493,
    "insurrection": 27860,
    "seniors": 15995,
    "july": 2251,
    "satan": 16795,
    "rebel": 8443,
    "basket": 10810,
    "##pw": 28400,
    "looks": 3504,
    "creepy": 17109,
    "toe": 11756,
    "##lite": 22779,
    "##wl": 13668,
    "ultraviolet": 26299,
    "##ェ": 30223,
    "##י": 29796,
    "[unused799]": 804,
    "walters": 19097,
    "hobart": 14005,
    "measurement": 10903,
    "##མ": 29968,
    "bled": 23919,
    "arsenal": 9433,
    "tamara": 21772,
    "kicker": 22652,
    "growls": 27825,
    "maxwell": 10691,
    "rca": 12639,
    "341": 28358,
    "##ala": 7911,
    "##krishna": 23017,
    "inhaled": 15938,
    "capital": 3007,
    "robert": 2728,
    "championed": 28683,
    "core": 4563,
    "tensions": 13136,
    "losers": 23160,
    "##bella": 21700,
    "falls": 4212,
    "[unused116]": 121,
    "[unused350]": 355,
    "shaggy": 25741,
    "##ag": 8490,
    "node": 13045,
    "lights": 4597,
    "landon": 20642,
    "confederates": 24627,
    "warden": 13745,
    "1692": 28622,
    "teachers": 5089,
    "hunt": 5690,
    "dna": 6064,
    "andes": 18096,
    "1844": 9730,
    "peppers": 23582,
    "franchise": 6329,
    "dissent": 24116,
    "showcases": 27397,
    "##how": 14406,
    "rubbed": 7503,
    "##pta": 22799,
    "colorado": 5169,
    "guidelines": 11594,
    "ʸ": 1144,
    "hp": 6522,
    "abstracts": 29474,
    "##linson": 25051,
    "##zd": 26494,
    "triangle": 9546,
    "puff": 23893,
    "slogan": 14558,
    "sava": 28350,
    "integral": 9897,
    "needles": 17044,
    "hearts": 8072,
    "fires": 8769,
    "1580": 28278,
    "##yde": 18124,
    "quad": 17718,
    "fragmentation": 28424,
    "vast": 6565,
    "པ": 1430,
    "##till": 28345,
    "ancestors": 10748,
    "aggression": 14974,
    "colors": 6087,
    "telecast": 28803,
    "interruption": 24191,
    "cats": 8870,
    "bleeding": 9524,
    "hired": 5086,
    "battlefield": 11686,
    "curious": 8025,
    "aachen": 29093,
    "closest": 7541,
    "deutsche": 11605,
    "chain": 4677,
    "lucy": 7004,
    "kapoor": 17129,
    "carolyn": 15611,
    "##oso": 19137,
    "turbines": 17396,
    "modelling": 19518,
    "##ali": 11475,
    "firefighters": 21767,
    "letter": 3661,
    "machine": 3698,
    "augusta": 13635,
    "##bs": 5910,
    "miner": 18594,
    "##het": 27065,
    "balfour": 27560,
    "nora": 12306,
    "heights": 7535,
    "culminating": 16979,
    "waters": 5380,
    "##vial": 18660,
    "ernie": 14637,
    "responding": 14120,
    "##ibility": 13464,
    "ma": 5003,
    "holiness": 27692,
    "##stadt": 21543,
    "blew": 8682,
    "##ov": 4492,
    "undisclosed": 18206,
    "事": 1751,
    "orthodox": 6244,
    "##zziness": 29212,
    "##江": 30423,
    "flown": 10583,
    "fullback": 21803,
    "chip": 9090,
    "pajamas": 27621,
    "\"": 1000,
    "oracle": 14721,
    "ami": 26445,
    "net": 5658,
    "ked": 16135,
    "sidewalks": 28386,
    "prefer": 9544,
    "redesigned": 17051,
    "##ene": 8625,
    "outward": 15436,
    "owl": 13547,
    "citrus": 20418,
    "viii": 9937,
    "##rice": 17599,
    "representations": 15066,
    "continual": 27222,
    "flying": 3909,
    "1769": 20663,
    "flickering": 20046,
    "fiona": 13073,
    "seeded": 13916,
    "##jon": 14339,
    "rotate": 24357,
    "covers": 4472,
    "##cked": 18141,
    "##puri": 24661,
    "god": 2643,
    "contractual": 27948,
    "##ished": 13295,
    "[unused991]": 996,
    "arab": 5424,
    "haunt": 24542,
    "fr": 10424,
    "stranger": 7985,
    "##borough": 10235,
    "randomly": 18154,
    "laszlo": 28226,
    "julio": 15090,
    "##za": 4143,
    "unwilling": 15175,
    "shoots": 11758,
    "penetrated": 21653,
    "martinez": 10337,
    "decay": 13121,
    "blonde": 9081,
    "orphans": 21478,
    "rats": 11432,
    "ptolemy": 23517,
    "##udged": 27066,
    "castillo": 19371,
    "downwards": 28457,
    "ballad": 11571,
    "litre": 16812,
    "periodicals": 21855,
    "duty": 4611,
    "starving": 18025,
    "conversations": 11450,
    "schneider": 15159,
    "[unused95]": 96,
    "##rum": 6824,
    "villas": 27317,
    "sharing": 6631,
    "##grant": 18980,
    "rewards": 19054,
    "##lena": 20844,
    "1766": 21410,
    "##cular": 15431,
    "pioneering": 13280,
    "darrell": 23158,
    "##wice": 23425,
    "openings": 16556,
    "3a": 23842,
    "toned": 27604,
    "guildford": 26353,
    "jeopardy": 26604,
    "forests": 6138,
    "descendants": 8481,
    "##eti": 20624,
    "darlington": 19667,
    "can": 2064,
    "damaging": 15011,
    "##bard": 21458,
    "brentford": 26550,
    "seafood": 23621,
    "arkansas": 6751,
    "tx": 19067,
    "addressing": 12786,
    "stilled": 22791,
    "ld": 25510,
    "[unused487]": 492,
    "roundabout": 22831,
    "##wire": 20357,
    "ェ": 1697,
    "cereal": 20943,
    "observer": 9718,
    "nominate": 23388,
    "##rocity": 21735,
    "gown": 11739,
    "midway": 12213,
    "buccaneers": 21629,
    "##nee": 24045,
    "gag": 18201,
    "meditation": 13804,
    "retreating": 17512,
    "##udy": 20217,
    "cuba": 7394,
    "jedi": 27273,
    "##dog": 16168,
    "forrest": 16319,
    "orbits": 20347,
    "##郡": 30485,
    "drivers": 6853,
    "[unused101]": 106,
    "guineas": 22385,
    "come": 2272,
    "guiana": 23568,
    "abandonment": 22290,
    "##楊": 30409,
    "lakes": 6597,
    "knuckles": 13513,
    "annoyance": 17466,
    "scully": 25686,
    "tko": 26537,
    "linguist": 22978,
    "chavez": 16860,
    "charlotte": 5904,
    "alfredo": 19423,
    "##uro": 10976,
    "conferences": 9281,
    "substantial": 6937,
    "interfaces": 19706,
    "builds": 16473,
    "refit": 27070,
    "configurations": 22354,
    "provocative": 26422,
    "hearth": 22885,
    "justice": 3425,
    "unstable": 14480,
    "##athic": 20972,
    "##izzly": 29266,
    "williamson": 14333,
    "purchase": 5309,
    "geologist": 21334,
    "##mies": 28397,
    "chuck": 8057,
    "##leg": 23115,
    "swat": 25414,
    "unauthorized": 24641,
    "covered": 3139,
    "yield": 10750,
    "explained": 4541,
    "rushed": 6760,
    "ithaca": 27939,
    "beside": 3875,
    "stem": 7872,
    "rhode": 9763,
    "clube": 24852,
    "santa": 4203,
    "[unused748]": 753,
    "salvage": 18340,
    "re": 2128,
    "touring": 6828,
    "assessment": 7667,
    "[unused987]": 992,
    "organist": 16397,
    "##lb": 20850,
    "##opa": 29477,
    "robbie": 12289,
    "franciscan": 19420,
    "curled": 8188,
    "hardness": 23608,
    "manga": 8952,
    "mouthful": 28462,
    "frequently": 4703,
    "arrest": 6545,
    "chrysler": 17714,
    "##abi": 28518,
    "special": 2569,
    "28": 2654,
    "##enting": 26951,
    "atkins": 21087,
    "supremacy": 22006,
    "dances": 11278,
    "spying": 22624,
    "multimedia": 14959,
    "خ": 1277,
    "16th": 5767,
    "frankie": 12784,
    "college": 2267,
    "stacks": 20829,
    "place": 2173,
    "paolo": 14174,
    "surfaces": 9972,
    "chromosome": 16706,
    "my": 2026,
    "observing": 14158,
    "holy": 4151,
    "emitted": 22627,
    "jurgen": 23171,
    "##uso": 26658,
    "wounding": 27285,
    "pit": 6770,
    "##nent": 21576,
    "passion": 6896,
    "tis": 22320,
    "sugarcane": 28910,
    "##ح": 29820,
    "growth": 3930,
    "stamped": 20834,
    "boomed": 28908,
    "remains": 3464,
    "serra": 22737,
    "rescued": 10148,
    "alexandra": 10481,
    "belongings": 20033,
    "ian": 4775,
    "##mity": 16383,
    "つ": 1664,
    "vicar": 12340,
    "sheila": 15062,
    "##eering": 20550,
    "borrowing": 23733,
    "renee": 17400,
    "sending": 6016,
    "thump": 21324,
    "silesia": 21872,
    "empowered": 26480,
    "##book": 8654,
    "outrageous": 25506,
    "fortunately": 14599,
    "[unused775]": 780,
    "involuntary": 26097,
    "48": 4466,
    "forever": 5091,
    "divine": 7746,
    "conservatory": 11879,
    "##rose": 13278,
    "middlesbrough": 21655,
    "instantly": 6880,
    "indirectly": 17351,
    "growl": 13349,
    "tonight": 3892,
    "reece": 24227,
    "india": 2634,
    "bathing": 17573,
    "joanne": 23459,
    "trembled": 14823,
    "need": 2342,
    "##ifolia": 29244,
    "示": 1923,
    "tombstone": 26671,
    "fulfillment": 29362,
    "##urus": 20089,
    "looting": 29367,
    "[unused245]": 250,
    "1662": 25909,
    "##ri": 3089,
    "thankful": 18836,
    "##56": 26976,
    "englishman": 25244,
    "##rar": 19848,
    "jealous": 9981,
    "crush": 10188,
    "214": 19936,
    "howard": 4922,
    "lamp": 10437,
    "uninhabited": 24749,
    "networks": 6125,
    "sony": 8412,
    "##م": 22192,
    "##inge": 23496,
    "##uder": 29190,
    "24th": 13386,
    "90s": 17233,
    "seven": 2698,
    "##jar": 16084,
    "castro": 11794,
    "boasted": 23390,
    "elbows": 13690,
    "42": 4413,
    "bunker": 15742,
    "stokes": 18716,
    "crumpled": 19814,
    "string": 5164,
    "vicki": 25424,
    "m2": 25525,
    "vedic": 25824,
    "##ˢ": 29717,
    "airplane": 13297,
    "magna": 20201,
    "collegiate": 9234,
    "##ur": 3126,
    "##ead": 13775,
    "pretend": 9811,
    "guessed": 11445,
    "favorably": 27597,
    "wagons": 14525,
    "however": 2174,
    "volumes": 6702,
    "bryant": 12471,
    "##cating": 18252,
    "glaciers": 21193,
    "pedersen": 27409,
    "noticeably": 25327,
    "hapoel": 24208,
    "1667": 27643,
    "##ifice": 23664,
    "refining": 28596,
    "1864": 6717,
    "manfred": 19149,
    "meyer": 11527,
    "substitution": 20885,
    "##—": 30052,
    "##zel": 12638,
    "implemented": 7528,
    "table": 2795,
    "archive": 8756,
    "synchronized": 25549,
    "acceptance": 9920,
    "heightened": 21106,
    "##bron": 21337,
    "relaxed": 8363,
    "para": 11498,
    "gruff": 27038,
    "complex": 3375,
    "hilbert": 27434,
    "##yal": 21095,
    "29": 2756,
    "begins": 4269,
    "devoid": 22808,
    "spectral": 17435,
    "booming": 24716,
    "tracey": 25984,
    "##街": 30472,
    "370": 16444,
    "since": 2144,
    "simone": 14072,
    "##stone": 9221,
    "homage": 14822,
    "ortiz": 19439,
    "effortlessly": 29483,
    "resemble": 13014,
    "dudley": 12648,
    "jubilee": 13078,
    "closely": 4876,
    "##tson": 25656,
    "distracted": 11116,
    "nobody": 6343,
    "##col": 25778,
    "heating": 10808,
    "chandler": 13814,
    "1721": 27689,
    "wink": 16837,
    "af": 21358,
    "##nium": 14907,
    "resist": 9507,
    "##wang": 16600,
    "##keeping": 18321,
    "1839": 10011,
    "liberals": 13350,
    "shapes": 10466,
    "splash": 17624,
    "##under": 20824,
    "dispersed": 15484,
    "agree": 5993,
    "##chase": 26300,
    "chest": 3108,
    "volta": 26089,
    "nsa": 23971,
    "45": 3429,
    "equipped": 6055,
    "mata": 22640,
    "doomed": 20076,
    "##ples": 21112,
    "coal": 5317,
    "##gol": 24141,
    "1922": 4798,
    "sly": 18230,
    "adventure": 6172,
    "strictly": 9975,
    "sanitation": 18723,
    "[unused608]": 613,
    "hawthorn": 21671,
    "lenses": 15072,
    "##berman": 23991,
    "snapping": 15790,
    "[unused457]": 462,
    "supplied": 8127,
    "ling": 17002,
    "##hab": 25459,
    "##nated": 23854,
    "taped": 19374,
    "brest": 22451,
    "##pon": 26029,
    "seminole": 28909,
    "ce": 8292,
    "souls": 9293,
    "putting": 5128,
    "teachings": 12209,
    "dewey": 20309,
    "perform": 4685,
    "psalm": 22728,
    "##fly": 14151,
    "##uts": 16446,
    "##glers": 25555,
    "hove": 25215,
    "##uria": 27703,
    "commanded": 6311,
    "awakened": 20256,
    "iowa": 5947,
    "[unused893]": 898,
    "##at": 4017,
    "mansfield": 15352,
    "ajax": 18176,
    "[unused12]": 13,
    "[unused896]": 901,
    "unsure": 12422,
    "start": 2707,
    "##،": 29814,
    "straining": 21366,
    "delay": 8536,
    "dvds": 22477,
    "annapolis": 24889,
    "unspoken": 25982,
    "assignment": 8775,
    "authors": 6048,
    "##ashi": 12914,
    "tormented": 29026,
    "results": 3463,
    "##osomal": 27642,
    "gulp": 26546,
    "boyd": 12164,
    "vines": 16702,
    "44": 4008,
    "ɫ": 1120,
    "marking": 10060,
    "bach": 10384,
    "deputy": 4112,
    "bun": 21122,
    "habits": 14243,
    "pastry": 27060,
    "knicks": 27817,
    "compilation": 6268,
    "ned": 12311,
    "energies": 19320,
    "weiss": 17889,
    "emigration": 20387,
    "ve": 2310,
    "consensus": 10465,
    "infused": 29592,
    "##lian": 15204,
    "martyr": 17216,
    "metz": 24424,
    "社": 1924,
    "##tical": 14656,
    "292": 25797,
    "indicates": 7127,
    "##uddin": 17375,
    "promenade": 26815,
    "##sin": 11493,
    "on": 2006,
    "##bian": 15599,
    "docks": 15093,
    "promptly": 13364,
    "legacy": 8027,
    "editions": 6572,
    "roasted": 28115,
    "gets": 4152,
    "##ज": 29855,
    "all": 2035,
    "approached": 5411,
    "falcons": 14929,
    "loads": 15665,
    "vibration": 17880,
    "managerial": 24465,
    "##idad": 27893,
    "afi": 28697,
    "²": 1082,
    "eyelids": 16544,
    "default": 12398,
    "##ill": 8591,
    "bacterial": 17341,
    "##rani": 21578,
    "proctor": 28770,
    "##8": 2620,
    "peeled": 20956,
    "ok": 7929,
    "##put": 18780,
    "##script": 22483,
    "mussolini": 22554,
    "##yeh": 25673,
    "sibling": 22941,
    "figured": 6618,
    "##river": 24352,
    "sgt": 17001,
    "uses": 3594,
    "when": 2043,
    "nba": 6452,
    "irina": 25404,
    "kamen": 22099,
    "dunne": 26553,
    "tombs": 16623,
    "melville": 20154,
    "adored": 28456,
    "consistently": 10862,
    "70s": 17549,
    "tossed": 7463,
    "breeding": 8119,
    "##inations": 22045,
    "buddha": 11903,
    "dieter": 27976,
    "perched": 17335,
    "regulars": 24945,
    "rural": 3541,
    "jerry": 6128,
    "cared": 8725,
    "tattooed": 26464,
    "radiated": 23000,
    "doc": 9986,
    "snarled": 15022,
    "prizes": 11580,
    "fencing": 15962,
    "careless": 23358,
    "atkinson": 18646,
    "sale": 5096,
    "iain": 24486,
    "desperately": 9652,
    "##eka": 19025,
    "max": 4098,
    "信": 1767,
    "##con": 8663,
    "merchants": 10310,
    "lush": 16299,
    "passing": 4458,
    "promote": 5326,
    "raphael": 12551,
    "otto": 8064,
    "altogether": 10462,
    "titan": 16537,
    "##xy": 18037,
    "esteem": 19593,
    "##ctuated": 25638,
    "beam": 7504,
    "313": 22997,
    "dee": 9266,
    "lending": 18435,
    "related": 3141,
    "1833": 11040,
    "boosted": 28043,
    "ownership": 6095,
    "pietro": 15541,
    "sacred": 6730,
    "2014": 2297,
    "eurovision": 12714,
    "mosquito": 22529,
    "##ד": 29791,
    "connor": 6720,
    "young": 2402,
    "##hak": 20459,
    "raleigh": 15842,
    "##mbs": 29232,
    "scales": 9539,
    "##log": 21197,
    "aristocracy": 22706,
    "##agi": 22974,
    "व": 1335,
    "##arians": 28369,
    "##書": 30397,
    "classmate": 23175,
    "pains": 20398,
    "ellie": 10707,
    "hume": 20368,
    "ionic": 24774,
    "andre": 7213,
    "江": 1897,
    "solution": 5576,
    "reader": 8068,
    "##uc": 14194,
    "processed": 13995,
    "reese": 15883,
    "##os": 2891,
    "##を": 30216,
    "##′": 30066,
    "gasping": 17054,
    "##rigues": 22934,
    "execution": 7781,
    "##asia": 15396,
    "1989": 2960,
    "toys": 10899,
    "induction": 15946,
    "traveller": 21916,
    "cad": 28353,
    "lanes": 10914,
    "lordship": 20698,
    "צ": 1263,
    "divided": 4055,
    "palatinate": 18990,
    "intercourse": 23198,
    "witch": 6965,
    "premiered": 5885,
    "1641": 25702,
    "[unused30]": 31,
    "greatly": 6551,
    "turbine": 14027,
    "quarries": 27069,
    "fact": 2755,
    "pumps": 15856,
    "revealing": 8669,
    "##opus": 24676,
    "##神": 30451,
    "rat": 9350,
    "veto": 22102,
    "raiding": 23530,
    "##gawa": 21188,
    "lifespan": 26462,
    "weep": 27874,
    "installed": 5361,
    "copyright": 9385,
    "tuscany": 23322,
    "hire": 10887,
    "##tism": 17456,
    "perrin": 28106,
    "heroic": 14779,
    "crawled": 12425,
    ")": 1007,
    "phd": 8065,
    "trouble": 4390,
    "##dya": 25838,
    "knitting": 26098,
    "ymca": 26866,
    "spain": 3577,
    "blushed": 19370,
    "##yr": 12541,
    "stare": 6237,
    "181": 18596,
    "exposure": 7524,
    "jaguars": 24017,
    "##囗": 30323,
    "[unused934]": 939,
    "inhibitors": 25456,
    "underlying": 10318,
    "₆": 1553,
    "accredited": 11459,
    "##pha": 21890,
    "roman": 3142,
    "##〈": 30163,
    "currie": 20667,
    "cigarette": 9907,
    "drawing": 5059,
    "guarantee": 11302,
    "よ": 1684,
    "designer": 5859,
    "##ses": 8583,
    "undertaking": 18457,
    "promoted": 3755,
    "##el": 2884,
    "via": 3081,
    "ornamental": 18200,
    "gunfire": 16978,
    "##heim": 8049,
    "staples": 24533,
    "starved": 26042,
    "predecessor": 8646,
    "##ム": 30251,
    "carving": 18441,
    "##₍": 30087,
    "kosovo": 11491,
    "navarro": 23524,
    "kruger": 27823,
    "threatened": 5561,
    "wilcox": 23926,
    "[unused119]": 124,
    "sea": 2712,
    "libya": 12917,
    "##aton": 22436,
    "maintained": 5224,
    "##pped": 11469,
    "airs": 14369,
    "lend": 18496,
    "segunda": 19071,
    "cough": 19340,
    "victorious": 13846,
    "[unused431]": 436,
    "softer": 19013,
    "##standing": 24911,
    "admit": 6449,
    "barnes": 9957,
    "douglas": 5203,
    "carole": 24348,
    "##ometer": 18721,
    "cartoonist": 19659,
    "[unused200]": 205,
    "kicked": 6476,
    "skate": 17260,
    "alessandro": 17956,
    "stagecoach": 26025,
    "reviewing": 15252,
    "niall": 21889,
    "33rd": 20883,
    "shades": 13178,
    "token": 19204,
    "##udes": 22087,
    "condoms": 29094,
    "gma": 20917,
    "gaining": 8550,
    "pmid": 20117,
    "##oja": 22918,
    "艹": 1939,
    "gerhard": 21037,
    "doorbell": 25422,
    "ா": 1395,
    "oman": 16640,
    "palestine": 8976,
    "exciting": 10990,
    "##bridge": 6374,
    "bee": 10506,
    "##ffer": 12494,
    "##ament": 24996,
    "##ᴮ": 30027,
    "[unused222]": 227,
    "皇": 1917,
    "chinese": 2822,
    "mythology": 11327,
    "##lana": 16695,
    "arrival": 5508,
    "curriculum": 8882,
    "ignacio": 22988,
    "advancement": 12607,
    "renal": 25125,
    "belle": 9852,
    "entrepreneur": 10670,
    "convergence": 19143,
    "affirmative": 27352,
    "##dha": 17516,
    "lyon": 10241,
    "aggravated": 25817,
    "conspicuous": 19194,
    "syndication": 26973,
    "costs": 5366,
    "valuable": 7070,
    "##rco": 29566,
    "parting": 20254,
    "railroads": 16197,
    "420": 17442,
    "sv": 17917,
    "comprised": 11539,
    "drenched": 25265,
    "medallist": 28595,
    "##ξ": 29729,
    "##ou": 7140,
    "##grass": 19673,
    "##↔": 30115,
    "##將": 30354,
    "seldom": 15839,
    "acceptable": 11701,
    "kannada": 13873,
    "##bt": 19279,
    "pak": 22190,
    "pratt": 13208,
    "##美": 30461,
    "治": 1900,
    "favorites": 20672,
    "interesting": 5875,
    "1705": 29326,
    "drummer": 7101,
    "##earing": 27242,
    "satisfied": 8510,
    "空": 1930,
    "lina": 27022,
    "pac": 14397,
    "部": 1960,
    "##nge": 15465,
    "##ucible": 21104,
    "massif": 24875,
    "catch": 4608,
    "##roll": 28402,
    "strength": 3997,
    "##duk": 28351,
    "cultural": 3451,
    "21st": 7398,
    "protect": 4047,
    "ᶜ": 1511,
    "justices": 19867,
    "denotes": 14796,
    "easily": 4089,
    "recruits": 15024,
    "parramatta": 22820,
    "structural": 8332,
    "aiming": 13659,
    "scattering": 17501,
    "##asse": 27241,
    "concession": 16427,
    "##aris": 23061,
    "unsuccessful": 7736,
    "monsoon": 19183,
    "##里": 30488,
    "tran": 25283,
    "ata": 29533,
    "[unused274]": 279,
    "1656": 28434,
    "prohibit": 23469,
    "stint": 12116,
    "prowess": 26120,
    "distinguished": 5182,
    "proposal": 6378,
    "##ually": 28488,
    "##erative": 25284,
    "origin": 4761,
    "stalks": 29594,
    "browne": 15005,
    "1799": 13839,
    "##row": 10524,
    "planting": 14685,
    "##liest": 21292,
    "##mon": 8202,
    "reproduction": 14627,
    "##som": 25426,
    "braid": 24148,
    "55th": 29075,
    "##ugh": 8953,
    "neck": 3300,
    "screens": 12117,
    "344": 29386,
    "vague": 13727,
    "independent": 2981,
    "mischievous": 25723,
    "dress": 4377,
    "[unused947]": 952,
    "##stead": 25647,
    "application": 4646,
    "bass": 3321,
    "##12": 12521,
    "showcased": 22443,
    "sorrow": 14038,
    "կ": 1227,
    "helped": 3271,
    "bars": 6963,
    "ezra": 16245,
    "plays": 3248,
    "sensual": 18753,
    "pressure": 3778,
    "sand": 5472,
    "treating": 12318,
    "traders": 13066,
    "cameroon": 13841,
    "requiring": 9034,
    "reform": 5290,
    "funky": 24151,
    "quicker": 19059,
    "hind": 17666,
    "harvey": 7702,
    "##thal": 24090,
    "naacp": 26155,
    "##镇": 30492,
    "prize": 3396,
    "sip": 10668,
    "vacated": 15348,
    "rendition": 19187,
    "fulham": 21703,
    "##us": 2271,
    "finland": 6435,
    "[unused357]": 362,
    "death": 2331,
    "ex": 4654,
    "knox": 11994,
    "##yme": 25219,
    "listings": 26213,
    "vile": 25047,
    "##訁": 30475,
    "pandit": 29331,
    "buff": 23176,
    "32": 3590,
    "cappella": 23013,
    "##uls": 28426,
    "proprietor": 21584,
    "ム": 1725,
    "[unused46]": 47,
    "acquire": 9878,
    "portrays": 17509,
    "contend": 27481,
    "rocket": 7596,
    "interpret": 17841,
    "moses": 9952,
    "##ulation": 9513,
    "tilt": 17010,
    "##achi": 21046,
    "not": 2025,
    "athena": 21880,
    "[unused535]": 540,
    "torso": 15190,
    "[unused776]": 781,
    "detect": 11487,
    "mentor": 10779,
    "##region": 23784,
    "demonstrate": 10580,
    "amber": 8994,
    "##iser": 17288,
    "emerges": 19391,
    "##陽": 30499,
    "←": 1583,
    "super": 3565,
    "russo": 17023,
    "express": 4671,
    "abundance": 14531,
    "forecast": 19939,
    "naughty": 20355,
    "relics": 16712,
    "riot": 11421,
    "tulsa": 16631,
    "##storm": 19718,
    "##部": 30486,
    "mbe": 20301,
    "interrupted": 7153,
    "発": 1914,
    "nu": 16371,
    "shallow": 8467,
    "rita": 11620,
    "##lor": 10626,
    "constituent": 13794,
    "scooped": 20804,
    "##pad": 15455,
    "debut": 2834,
    "religions": 11822,
    "collects": 17427,
    "arcs": 29137,
    "persons": 5381,
    "posse": 25751,
    "bn": 24869,
    "太": 1812,
    "grenade": 17038,
    "rna": 12987,
    "learnt": 20215,
    "medicinal": 20632,
    "dhaka": 16479,
    "como": 18609,
    "somalia": 14717,
    "secular": 10644,
    "nose": 4451,
    "country": 2406,
    "##lad": 27266,
    "travers": 29053,
    "carr": 12385,
    "focus": 3579,
    "propagation": 20594,
    "jj": 29017,
    "kahn": 19361,
    "##tron": 15312,
    "mutter": 23457,
    "upright": 10051,
    "university": 2118,
    "adolf": 12500,
    "flourished": 17893,
    "flu": 19857,
    "regrets": 23161,
    "marko": 28003,
    "2006": 2294,
    "bipolar": 29398,
    "faintly": 18587,
    "fangs": 11738,
    "garrett": 9674,
    "how": 2129,
    "1695": 29140,
    "havana": 15278,
    "##¤": 29647,
    "directed": 2856,
    "fleet": 4170,
    "bells": 10118,
    "casts": 23942,
    "tags": 22073,
    "##bow": 18912,
    "nadia": 14942,
    "##ico": 11261,
    "emptied": 21764,
    "halle": 19769,
    "##rative": 18514,
    "federer": 28294,
    "experts": 8519,
    "anatolia": 23747,
    "pause": 8724,
    "##itating": 16518,
    "differences": 5966,
    "ulrich": 19619,
    "points": 2685,
    "sometimes": 2823,
    "xvi": 16855,
    "crowe": 25657,
    "running": 2770,
    "##icus": 14239,
    "crimean": 20516,
    "million": 2454,
    "##36": 21619,
    "##boards": 15271,
    "reorganized": 14137,
    "warmer": 16676,
    "arrow": 8612,
    "julien": 19290,
    "transitional": 17459,
    "poly": 26572,
    "partisan": 14254,
    "bayern": 21350,
    "winger": 16072,
    "crouched": 14275,
    "portugal": 5978,
    "plight": 24525,
    "##ros": 7352,
    "grassy": 22221,
    "gough": 29124,
    "cottage": 9151,
    "designers": 11216,
    "venus": 11691,
    "assistants": 16838,
    "willie": 9893,
    "char": 25869,
    "depended": 17292,
    "tor": 17153,
    "debates": 14379,
    "edward": 3487,
    "organization": 3029,
    "splashed": 22055,
    "arise": 13368,
    "buddies": 24115,
    "##eses": 23072,
    "##ductive": 26638,
    "notions": 21951,
    "transatlantic": 26617,
    "negative": 4997,
    "tipping": 25486,
    "pack": 5308,
    "abc": 5925,
    "##zi": 5831,
    "licence": 11172,
    "fest": 17037,
    "assembly": 3320,
    "jen": 15419,
    "internet": 4274,
    "##erine": 24226,
    "printers": 23557,
    "parenting": 28586,
    "npr": 21411,
    "[unused117]": 122,
    "canonical": 18562,
    "mirrored": 22243,
    "patriots": 11579,
    "loop": 7077,
    "boxing": 8362,
    "dear": 6203,
    "computed": 24806,
    "treat": 7438,
    "carey": 11782,
    "##m": 2213,
    "##pina": 26787,
    "moods": 27824,
    "##sh": 4095,
    "william": 2520,
    "jaguar": 16490,
    "##vary": 21639,
    "taboo": 27505,
    "prohibited": 10890,
    "##year": 29100,
    "243": 22884,
    "overhead": 8964,
    "う": 1648,
    "1780": 15051,
    "##turn": 22299,
    "156": 16734,
    "poland": 3735,
    "preschool": 23655,
    "##ber": 5677,
    "##nessy": 25441,
    "erin": 11781,
    "[unused728]": 733,
    "tucker": 9802,
    "simulcast": 20525,
    "sabine": 18578,
    "##lab": 20470,
    "respondents": 25094,
    "director": 2472,
    "forts": 15421,
    "specialization": 28031,
    "moment": 2617,
    "otherwise": 4728,
    "divide": 11443,
    "89": 6486,
    "gratitude": 15531,
    "choice": 3601,
    "##fc": 11329,
    "plymouth": 10221,
    "terrific": 27547,
    "strains": 18859,
    "reformation": 13708,
    "dilapidated": 29283,
    "collins": 6868,
    "trinity": 7124,
    "deliberately": 9969,
    "attended": 3230,
    "##utus": 23998,
    "##ble": 3468,
    "##zo": 6844,
    "##ame": 14074,
    "broadway": 5934,
    "weaver": 14077,
    "e": 1041,
    "##ち": 30188,
    "sixteenth": 14683,
    "fences": 21549,
    "410": 19151,
    "biographical": 16747,
    "##sic": 19570,
    "replacements": 23936,
    "##logists": 18738,
    "scrutiny": 17423,
    "palaces": 22763,
    "portraying": 17274,
    "##bos": 15853,
    "acceleration": 16264,
    "kitchener": 27154,
    "softened": 16573,
    "1820": 11102,
    "##ywood": 26985,
    "[unused4]": 5,
    "draw": 4009,
    "consumers": 10390,
    "1791": 14362,
    "[unused910]": 915,
    "##cing": 6129,
    "devastation": 25594,
    "wiggled": 26750,
    "##kal": 12902,
    "broadly": 13644,
    "waterford": 17769,
    "##q": 4160,
    "inactivated": 15663,
    "projects": 3934,
    "transmitters": 26288,
    "dexter": 14375,
    "##ии": 15414,
    "liszt": 26273,
    "maintenance": 6032,
    "##off": 7245,
    "armoured": 11104,
    "rendered": 10155,
    "dagger": 10794,
    "inflammatory": 20187,
    "packers": 15285,
    "fir": 21554,
    "currents": 14731,
    "[unused829]": 834,
    "gang": 6080,
    "100th": 16919,
    "taxa": 23726,
    "voluntarily": 17912,
    "freeze": 13184,
    "sighs": 19906,
    "##lift": 18412,
    "calgary": 10112,
    "##cera": 19357,
    "reserve": 3914,
    "grab": 6723,
    "##se": 3366,
    "suggested": 4081,
    "assisted": 7197,
    "important": 2590,
    "dover": 13985,
    "miranda": 9392,
    "[unused696]": 701,
    "[unused227]": 232,
    "##ling": 2989,
    "scarlett": 20862,
    "chair": 3242,
    "protagonist": 10191,
    "quarrel": 26260,
    "grouping": 19765,
    "gloss": 27068,
    "whorls": 25637,
    "…": 1529,
    "poverty": 5635,
    "lunar": 11926,
    "分": 1775,
    "##liness": 20942,
    "converge": 28314,
    "aquatics": 26649,
    "##lica": 19341,
    "stepmother": 26959,
    "##犬": 30434,
    "kang": 16073,
    "##kas": 13716,
    "lifelong": 13506,
    "foreigners": 15040,
    "invasions": 23536,
    "##quay": 25575,
    "glowed": 16497,
    "freight": 8441,
    "investigating": 11538,
    "ronnie": 11688,
    "missiles": 10815,
    "92": 6227,
    "1897": 6347,
    "sweeping": 12720,
    "[unused944]": 949,
    "[unused614]": 619,
    "prof": 11268,
    "acted": 6051,
    "manufactures": 22027,
    "enclosure": 17539,
    "swift": 9170,
    "expands": 24545,
    "fled": 6783,
    "furlongs": 26602,
    "developments": 8973,
    "quarter": 4284,
    "frs": 25188,
    "targeted": 9416,
    "unix": 19998,
    "##nity": 22758,
    "pry": 29198,
    "moderately": 17844,
    "：": 1993,
    "found": 2179,
    "scala": 26743,
    "though": 2295,
    "possibly": 4298,
    "physics": 5584,
    "converted": 4991,
    "disguise": 14249,
    "ₜ": 1571,
    "archived": 9749,
    "₍": 1558,
    "engage": 8526,
    "bargaining": 21990,
    "arias": 25905,
    "##mps": 25370,
    "grimaced": 19014,
    "[unused977]": 982,
    "brisbane": 7717,
    "reply": 7514,
    "piercing": 14628,
    "boca": 22765,
    "salad": 16521,
    "##mony": 22847,
    "ua": 25423,
    "##ritan": 25279,
    "£1": 14534,
    "##(": 29619,
    "inexperienced": 26252,
    "kimberley": 25004,
    "encompasses": 13974,
    "status": 3570,
    "intra": 26721,
    "alert": 9499,
    "torch": 12723,
    "uno": 27776,
    "customs": 8205,
    "beach": 3509,
    "lowered": 6668,
    "sufficient": 7182,
    "lyricist": 19489,
    "kin": 12631,
    "apprenticeship": 20448,
    "##vard": 25911,
    "comics": 5888,
    "inducing": 29290,
    "yanked": 10963,
    "1889": 6478,
    "1796": 13885,
    "woven": 17374,
    "meets": 6010,
    "132": 14078,
    "ku": 13970,
    "##岡": 30358,
    "##horse": 23024,
    "albans": 26311,
    "trek": 10313,
    "suspicions": 17817,
    "repression": 22422,
    "war": 2162,
    "continental": 6803,
    "slab": 17584,
    "[unused385]": 390,
    "commonly": 4141,
    "virginia": 3448,
    "bias": 13827,
    "barely": 4510,
    "drafted": 7462,
    "[unused818]": 823,
    "forgetting": 17693,
    "disused": 26958,
    "mla": 18619,
    "evening": 3944,
    "##ʃ": 29696,
    "matteo": 24713,
    "[unused955]": 960,
    "འ": 1433,
    "morton": 11164,
    "##code": 16044,
    "locks": 11223,
    "[unused156]": 161,
    "gb": 16351,
    "saddle": 12279,
    "extending": 8402,
    "reflects": 11138,
    "##pired": 21649,
    "acquiring": 13868,
    "##fide": 20740,
    "kala": 26209,
    "antiquities": 21387,
    "##fication": 10803,
    "coulter": 28293,
    "haze": 16332,
    "twenties": 18946,
    "embracing": 23581,
    "uniformly": 27423,
    "##आ": 29848,
    "1622": 28133,
    "african": 3060,
    "‐": 1513,
    "↔": 1587,
    "renovation": 10525,
    "##selle": 19358,
    "rearview": 28726,
    "gunner": 14850,
    "debbie": 16391,
    "fucked": 21746,
    "estranged": 24211,
    "##mme": 20058,
    "##土": 30327,
    "##his": 24158,
    "alexa": 24969,
    "past": 2627,
    "[unused381]": 386,
    "favoured": 16822,
    "郎": 1958,
    "problematic": 18636,
    "musee": 18070,
    "paranormal": 20725,
    "##lham": 25968,
    "##⁰": 30071,
    "##⊗": 30140,
    "parsons": 13505,
    "prophets": 23172,
    "commission": 3222,
    "stipulated": 25729,
    "lobes": 24423,
    "become": 2468,
    "ears": 5551,
    "##ade": 9648,
    "hawk": 9881,
    "nwa": 15737,
    "hickory": 28158,
    "armour": 12371,
    "len": 18798,
    "raids": 11217,
    "actors": 5889,
    "ballroom": 14307,
    "traction": 16493,
    "##lism": 28235,
    "##hett": 28499,
    "1880s": 12751,
    "##sons": 23345,
    "evident": 10358,
    "##grove": 21525,
    "##ppa": 13944,
    "##held": 24850,
    "fun": 4569,
    "##less": 3238,
    "insert": 19274,
    "##fare": 17883,
    "insertion": 23851,
    "deliveries": 23534,
    "spouse": 18591,
    "##tern": 16451,
    "thierry": 26413,
    "liked": 4669,
    "##hunter": 25629,
    "##used": 13901,
    "##isto": 20483,
    "[unused945]": 950,
    "principals": 27928,
    "pathetic": 17203,
    "wrath": 14532,
    "jericho": 17309,
    "clip": 12528,
    "debated": 15268,
    "##shi": 6182,
    "disqualified": 14209,
    "under": 2104,
    "shrine": 9571,
    "spoiled": 19582,
    "philanthropic": 25321,
    "з": 1187,
    "##ffa": 20961,
    "illustrating": 28252,
    "severity": 18976,
    "fool": 7966,
    "firstly": 15847,
    "##polis": 17699,
    "brightly": 14224,
    "##lide": 24198,
    "bp": 17531,
    "panicked": 16035,
    "aisles": 25442,
    "bladed": 27402,
    "##11": 14526,
    "anya": 21728,
    "synonym": 10675,
    "[unused418]": 423,
    "chiefs": 9058,
    "##dson": 25112,
    "cold": 3147,
    "chronicles": 11906,
    "hospitalized": 24735,
    "endeavors": 28809,
    "##dly": 18718,
    "水": 1893,
    "armies": 8749,
    "wholesale": 17264,
    "##psis": 18409,
    "climatic": 27301,
    "[unused627]": 632,
    "harrison": 6676,
    "##chan": 14856,
    "night": 2305,
    "transverse": 18323,
    "gilles": 21717,
    "avoid": 4468,
    "railing": 15747,
    "yanking": 25716,
    "##天": 30337,
    "侍": 1765,
    "[unused917]": 922,
    "valor": 27314,
    "mclaren": 18590,
    "shaken": 16697,
    "compiled": 9227,
    "burgundy": 18383,
    "merchant": 6432,
    "wessex": 27886,
    "plains": 8575,
    "contrary": 10043,
    "##shu": 14235,
    "##cus": 7874,
    "give": 2507,
    "discontinued": 8944,
    "260": 13539,
    "clyde": 12085,
    "[unused578]": 583,
    "translate": 17637,
    "pronounced": 8793,
    "scanner": 26221,
    "##rade": 13662,
    "chorus": 7165,
    "[unused398]": 403,
    "kindness": 16056,
    "220": 10545,
    "[unused113]": 118,
    "welsh": 6124,
    "incorrect": 16542,
    "judo": 19083,
    "inferior": 14092,
    "squared": 19942,
    "cactus": 23265,
    "##dam": 17130,
    "##ия": 23483,
    "interviews": 7636,
    "barons": 21487,
    "pouch": 21445,
    "welcomed": 10979,
    "racism": 14398,
    "negotiated": 13630,
    "##smo": 25855,
    "centre": 2803,
    "cyclists": 21912,
    "curry": 15478,
    "[unused646]": 651,
    "worry": 4737,
    "compromised": 20419,
    "rapper": 10687,
    "neatly": 15981,
    "while": 2096,
    "refinery": 21034,
    "星": 1866,
    "sausage": 24165,
    "pal": 14412,
    "prophecy": 14951,
    "##ols": 27896,
    "snorted": 15235,
    "##sma": 26212,
    "reasoned": 24557,
    "frankfurt": 9780,
    "wwf": 16779,
    "noteworthy": 19144,
    "knowing": 4209,
    "რ": 1451,
    "mythical": 19336,
    "roberts": 7031,
    "ren": 14916,
    "ineligible": 22023,
    "op": 6728,
    "farmland": 16439,
    "ד": 1244,
    "##khan": 26370,
    "assured": 8916,
    "decorate": 29460,
    "connector": 19400,
    "emmanuel": 14459,
    "capable": 5214,
    "glint": 25263,
    "consolidate": 24939,
    "visual": 5107,
    "catalytic": 26244,
    "awesome": 12476,
    "出": 1774,
    "kitty": 14433,
    "priesthood": 17911,
    "largely": 4321,
    "fill": 6039,
    "##ᆸ": 30024,
    "mia": 8764,
    "##cter": 21162,
    "cuban": 9642,
    "pat": 6986,
    "lenin": 17497,
    "lds": 17627,
    "archaeologists": 19254,
    "drones": 24633,
    "wal": 24547,
    "scripts": 14546,
    "##elial": 24587,
    "readings": 15324,
    "magic": 3894,
    "frontiers": 28750,
    "card": 4003,
    "float": 14257,
    "rodrigo": 18943,
    "kerr": 14884,
    "josh": 6498,
    "absorption": 16326,
    "fluctuations": 28892,
    "devised": 14917,
    "##caster": 25490,
    "advocates": 13010,
    "##i": 2072,
    "unmarried": 17204,
    "commissions": 13239,
    "##ott": 14517,
    "zu": 16950,
    "stand": 3233,
    "rudder": 24049,
    "abolitionist": 29554,
    "bullet": 7960,
    "laird": 21964,
    "neville": 14871,
    "incentive": 20438,
    "hidden": 5023,
    "fridge": 16716,
    "ewing": 24023,
    "muzzle": 17750,
    "liner": 11197,
    "medal": 3101,
    "joao": 16304,
    "##tting": 13027,
    "##ending": 18537,
    "##pee": 28084,
    "##tica": 22723,
    "sydney": 3994,
    "twins": 8178,
    "innate": 25605,
    "operation": 3169,
    "americans": 4841,
    "গ": 1355,
    "は": 1672,
    "dotted": 20384,
    "phase": 4403,
    "sensitive": 7591,
    "gardner": 11764,
    "complementary": 21053,
    "posters": 14921,
    "ogden": 23203,
    "data": 2951,
    "farmer": 7500,
    "created": 2580,
    "beaches": 12212,
    "denise": 15339,
    "##事": 30277,
    "kobayashi": 28930,
    "macro": 26632,
    "versus": 6431,
    "wrenched": 26971,
    "##pps": 28281,
    "suriname": 25050,
    "ali": 4862,
    "stephanie": 11496,
    "tricked": 24929,
    "veil": 15562,
    "hiv": 9820,
    "previously": 3130,
    "cliffs": 13333,
    "foremost": 16097,
    "biochemistry": 22419,
    "##hong": 19991,
    "buildings": 3121,
    "##finder": 23695,
    "##deck": 26547,
    "murdering": 21054,
    "##bbies": 27982,
    "quiet": 4251,
    "converting": 16401,
    "fail": 8246,
    "afterlife": 25115,
    "1726": 28342,
    "bancroft": 29351,
    "39th": 22702,
    "pakistan": 4501,
    "joined": 2587,
    "##cture": 14890,
    "threaded": 26583,
    "##ん": 30217,
    "convicts": 24948,
    "[unused984]": 989,
    "seahawks": 21390,
    "bangor": 21895,
    "mons": 29408,
    "father": 2269,
    "ethanol": 22886,
    "chicago": 3190,
    "sighted": 19985,
    "##\"": 29613,
    "contributions": 5857,
    "archdeacon": 21742,
    "##race": 22903,
    "authorised": 19256,
    "ct": 14931,
    "mixer": 23228,
    "##udi": 21041,
    "avila": 29079,
    "hardin": 27522,
    "wavelengths": 29263,
    "raising": 6274,
    "later": 2101,
    "amir": 18904,
    "##ut": 4904,
    "pixels": 27725,
    "##wer": 13777,
    "borders": 6645,
    "exploring": 11131,
    "##ored": 19574,
    "sienna": 20210,
    "identify": 6709,
    "trauma": 12603,
    "tomatoes": 12851,
    "affluent": 22666,
    "ny": 6396,
    "las": 5869,
    "tumbled": 18303,
    "##ect": 22471,
    "umpire": 20887,
    "##5": 2629,
    "##makers": 12088,
    "gymnast": 25055,
    "##dy": 5149,
    "井": 1754,
    "amounts": 8310,
    "pebbles": 28962,
    "contender": 20127,
    "available": 2800,
    "1991": 2889,
    "riots": 12925,
    "flowers": 4870,
    "##।": 29880,
    "resentment": 20234,
    "wr": 23277,
    "[unused866]": 871,
    "vacation": 10885,
    "##very": 27900,
    "##ita": 6590,
    "lexington": 14521,
    "outs": 21100,
    "1913": 5124,
    "1873": 7612,
    "wolfe": 14212,
    "everyone": 3071,
    "whether": 3251,
    "##ering": 7999,
    "attraction": 8432,
    "##dating": 16616,
    "piss": 18138,
    "emancipation": 22656,
    "t": 1056,
    "recruit": 13024,
    "vocalists": 27478,
    "490": 22288,
    "[unused828]": 833,
    "bruce": 5503,
    "lovely": 8403,
    "歌": 1886,
    "locke": 18343,
    "1921": 4885,
    "abusive": 20676,
    "contemplating": 25247,
    "blogger": 28205,
    "unfit": 29439,
    "rigged": 25216,
    "prints": 11204,
    "brighton": 10309,
    "##秀": 30454,
    "##雄": 30500,
    "gentry": 20262,
    "♠": 1623,
    "介": 1759,
    "enjoying": 9107,
    "##gus": 12349,
    "lobby": 9568,
    "owen": 7291,
    "provinces": 6941,
    "smirk": 15081,
    "functionality": 15380,
    "雄": 1974,
    "custom": 7661,
    "patricia": 10717,
    "##rie": 7373,
    "##lity": 18605,
    "##hus": 9825,
    "notwithstanding": 26206,
    "guerrero": 16938,
    "deposition": 19806,
    "##yd": 25688,
    "##user": 20330,
    "lang": 11374,
    "dempsey": 28165,
    "precisely": 10785,
    "##o": 2080,
    "29th": 16318,
    "writhing": 26185,
    "770": 29065,
    "1890": 6193,
    "along": 2247,
    "##〜": 30171,
    "kari": 27356,
    "thereof": 21739,
    "1688": 24082,
    "bmg": 24499,
    "2d": 14134,
    "wastewater": 28269,
    "compose": 17202,
    "##∩": 30131,
    "intercept": 19115,
    "controller": 11486,
    "cyrus": 16123,
    "[unused890]": 895,
    "##try": 11129,
    "awkwardly": 18822,
    "abstraction": 24504,
    "elector": 20374,
    "height": 4578,
    "sufficiently": 12949,
    "##mour": 20360,
    "cancers": 25409,
    "gracie": 19005,
    "shocks": 28215,
    "ˡ": 1151,
    "##tar": 7559,
    "devices": 5733,
    "absent": 9962,
    "evangelical": 11295,
    "davy": 23255,
    "rican": 13641,
    "2000": 2456,
    "##ф": 29749,
    "austin": 5899,
    "show": 2265,
    "kayla": 26491,
    "canine": 28735,
    "differed": 19541,
    "intel": 13420,
    "toby": 11291,
    "petersburg": 8062,
    "##jure": 25243,
    "[unused205]": 210,
    "##lub": 27959,
    "astor": 25159,
    "limb": 15291,
    "neural": 15756,
    "daughters": 5727,
    "43": 4724,
    "decree": 10037,
    "monasteries": 15947,
    "blunt": 14969,
    "同": 1794,
    "processing": 6364,
    "pigeon": 16516,
    "coded": 22402,
    "jane": 4869,
    "armament": 14410,
    "gigs": 20929,
    "saints": 6586,
    "fae": 17282,
    "nearer": 20388,
    "obligation": 14987,
    "displays": 8834,
    "plumbing": 27902,
    "circulating": 22458,
    "thrill": 16959,
    "##ν": 16177,
    "york": 2259,
    "carly": 18431,
    "##chio": 23584,
    "##pse": 29251,
    "switched": 7237,
    "january": 2254,
    "intercity": 20651,
    "citizen": 6926,
    "299": 25926,
    "##ར": 29970,
    "##fixed": 23901,
    "consists": 3774,
    "##physics": 15638,
    "pearson": 12874,
    "##zong": 13150,
    "relaxing": 19613,
    "##ias": 7951,
    "greta": 26111,
    "lawn": 10168,
    "proclaimed": 10116,
    "napier": 21320,
    "##cy": 5666,
    "prejudice": 18024,
    "##ffen": 18032,
    "tight": 4389,
    "cochrane": 22329,
    "##cona": 24366,
    "##・": 30264,
    "##wives": 23744,
    "lough": 29504,
    "interview": 4357,
    "ᵍ": 1500,
    "##ire": 7442,
    "barriers": 13500,
    "ministry": 3757,
    "##sies": 14625,
    "textbooks": 18841,
    "415": 24690,
    "slams": 25967,
    "sudden": 5573,
    "trough": 23389,
    "##jal": 25787,
    "##コ": 30230,
    "ammunition": 9290,
    "brew": 24702,
    "plump": 26731,
    "husky": 18758,
    "##al": 2389,
    "##dome": 26173,
    "disregard": 27770,
    "[unused794]": 799,
    "straightening": 27508,
    "bertha": 25079,
    "pumped": 16486,
    "tibet": 13319,
    "##eil": 24359,
    "champs": 29008,
    "ripe": 22503,
    "jackets": 17764,
    "guerrillas": 26955,
    "digitally": 18397,
    "lesbian": 11690,
    "mighty": 10478,
    "1892": 6527,
    "##ₛ": 30098,
    "ubiquitous": 28498,
    "diocese": 5801,
    "##me": 4168,
    "constitution": 4552,
    "outta": 24955,
    "education": 2495,
    "ᄏ": 1466,
    "realises": 25924,
    "casa": 14124,
    "forward": 2830,
    "vietnamese": 9101,
    "ironic": 19313,
    "marguerite": 15334,
    "mess": 6752,
    "faint": 8143,
    "worked": 2499,
    "enrolled": 8302,
    "agency": 4034,
    "##cin": 15459,
    "mas": 16137,
    "edmond": 21773,
    "高": 1981,
    "##qual": 26426,
    "worcestershire": 20218,
    "caliphate": 28034,
    "roll": 4897,
    "jury": 6467,
    "industry": 3068,
    "cited": 6563,
    "florida": 3516,
    "mrs": 3680,
    "injury": 4544,
    "142": 16087,
    "lengthy": 12401,
    "dunn": 14145,
    "commanding": 7991,
    "##ß": 19310,
    "186": 19609,
    "willingness": 19732,
    "pet": 9004,
    "##listic": 27348,
    "because": 2138,
    "touching": 7244,
    "lays": 19764,
    "dysfunction": 28466,
    "baptised": 28798,
    "had": 2018,
    "##ulator": 20350,
    "り": 1686,
    "multiplication": 24856,
    "illustrates": 24899,
    "stalls": 19753,
    "contradiction": 26917,
    "hardcore": 13076,
    "##ssing": 18965,
    "##bri": 23736,
    "[unused408]": 413,
    "ashe": 13402,
    "terrain": 9291,
    "saw": 2387,
    "tenth": 7891,
    "##ise": 5562,
    "premises": 10345,
    "wanting": 5782,
    "eduard": 20424,
    "treasures": 17605,
    "##erik": 27350,
    "postdoctoral": 29272,
    "langley": 19094,
    "dancing": 5613,
    "discs": 15303,
    "##puram": 17809,
    "[unused347]": 352,
    "riding": 5559,
    "estuary": 18056,
    "##ine": 3170,
    "stil": 25931,
    "bobbie": 27731,
    "necessity": 13185,
    "##thing": 20744,
    "fiery": 15443,
    "robust": 15873,
    "crawl": 13529,
    "##hm": 14227,
    "inadequate": 14710,
    "principality": 18018,
    "blasted": 18461,
    "sounded": 5015,
    "expansive": 25145,
    "dso": 22951,
    "troopers": 26246,
    "es": 9686,
    "commercially": 11088,
    "##iii": 28954,
    "identical": 7235,
    "ী": 1380,
    "issn": 23486,
    "##rral": 24988,
    "frontman": 21597,
    "wild": 3748,
    "iron": 3707,
    "lim": 18525,
    "##ric": 7277,
    "##ologists": 16886,
    "brushed": 7765,
    "minutes": 2781,
    "1896": 6306,
    "didn": 2134,
    "singular": 13048,
    "elephants": 16825,
    "turnover": 20991,
    "प": 1328,
    "ul": 17359,
    "##gence": 17905,
    "##je": 6460,
    "tying": 15233,
    "grenades": 21914,
    "betsy": 22396,
    "at": 2012,
    "devoted": 7422,
    "descending": 15127,
    "##asco": 28187,
    "138": 15028,
    "replied": 3880,
    "anchors": 24674,
    "##ว": 29955,
    "##reate": 29313,
    "admiralty": 14179,
    "324": 27234,
    "##brick": 25646,
    "we": 2057,
    "ක": 1403,
    "according": 2429,
    "option": 5724,
    "including": 2164,
    "bartlett": 20081,
    "repertory": 21099,
    "sarawak": 21546,
    "delaying": 29391,
    "beneath": 4218,
    "##pal": 12952,
    "medieval": 5781,
    "##∪": 30132,
    "vortex": 23463,
    "deadline": 15117,
    "attempting": 7161,
    "##tas": 10230,
    "instance": 6013,
    "sucked": 8631,
    "##ksha": 28132,
    "shore": 5370,
    "bundled": 24378,
    "cobalt": 25627,
    "efficient": 8114,
    "star": 2732,
    "appliances": 22449,
    "report": 3189,
    "cerro": 25498,
    "##zon": 11597,
    "rte": 20375,
    "creative": 5541,
    "pushes": 13956,
    "##loid": 27710,
    "puck": 22900,
    "encore": 19493,
    "xbox": 12202,
    "twentieth": 9086,
    "##xin": 20303,
    "fern": 20863,
    "hornets": 24855,
    "我": 1855,
    "age": 2287,
    "iii": 3523,
    "none": 3904,
    "sur": 7505,
    "##rid": 14615,
    "acquisitions": 19530,
    "coping": 27520,
    "##zar": 9057,
    "reunite": 25372,
    "##dora": 24562,
    "quarterfinals": 9237,
    "kota": 23856,
    "jack": 2990,
    "skirmish": 27264,
    "argued": 5275,
    "soo": 17111,
    "multiplied": 28608,
    "guitar": 2858,
    "demanded": 6303,
    "goodman": 14514,
    "cables": 15196,
    "■": 1617,
    "witches": 12566,
    "##the": 10760,
    "balloons": 22163,
    "skier": 21294,
    "puddle": 25081,
    "perceive": 23084,
    "derive": 18547,
    "manufacturing": 5814,
    "cheek": 5048,
    "lyrical": 16376,
    "enforcing": 27455,
    "##ɛ": 29275,
    "##iso": 19565,
    "staggered": 14648,
    "symmetrical": 23476,
    "albanian": 9408,
    "[unused966]": 971,
    "board": 2604,
    "disabled": 9776,
    "1643": 25534,
    "stood": 2768,
    "difficult": 3697,
    "tomas": 12675,
    "spear": 12341,
    "alicia": 15935,
    "vickers": 18571,
    "tau": 19982,
    "eritrea": 26040,
    "غ": 1289,
    "rotting": 22005,
    "herds": 28822,
    "suffolk": 12291,
    "##rock": 16901,
    "nantes": 25387,
    "mine": 3067,
    "tone": 4309,
    "speeds": 10898,
    "thwarted": 28409,
    "##rong": 17583,
    "##erie": 17378,
    "opposes": 29158,
    "1965": 3551,
    "scientists": 6529,
    "205": 16327,
    "teams": 2780,
    "transformations": 21865,
    "##te": 2618,
    "##rang": 24388,
    "eco": 17338,
    "peering": 16740,
    "troy": 9553,
    "grossing": 18244,
    "sprint": 9043,
    "##channel": 26058,
    "venom": 15779,
    "##¾": 29665,
    "appalachian": 19682,
    "june": 2238,
    "##nad": 25389,
    "bei": 21388,
    "##ک": 29841,
    "games": 2399,
    "meng": 27955,
    "neighbours": 14754,
    "cadillac": 20425,
    "arrangement": 6512,
    "wrists": 12150,
    "emotionally": 14868,
    "##nah": 15272,
    "##ostal": 29381,
    "baker": 6243,
    "キ": 1701,
    "protested": 11456,
    "i": 1045,
    "establishes": 21009,
    "##har": 8167,
    "reckless": 18555,
    "craig": 7010,
    "##aan": 14634,
    "objections": 17304,
    "circuit": 4984,
    "cf": 12935,
    "haul": 14655,
    "netball": 25034,
    "bonded": 20886,
    "communes": 16569,
    "##gil": 20142,
    "hilt": 21184,
    "blizzard": 21689,
    "##ui": 10179,
    "##dock": 14647,
    "prom": 20877,
    "scheme": 5679,
    "hoop": 27669,
    "transporting": 18276,
    "mated": 28795,
    "dissolved": 8314,
    "contiguous": 25177,
    "##rde": 25547,
    "##resses": 25932,
    "##―": 30053,
    "madhya": 20841,
    "insisted": 7278,
    "##open": 26915,
    "eduardo": 14846,
    "effects": 3896,
    "##yas": 16303,
    "harmonic": 19452,
    "nagasaki": 27107,
    "##ப": 29924,
    "##bha": 22655,
    "belt": 5583,
    "##14": 16932,
    "labs": 13625,
    "dreaming": 12802,
    "ひ": 1673,
    "une": 16655,
    "##ə": 29681,
    "gaius": 19564,
    "##chua": 26200,
    "padua": 24941,
    "homeland": 10759,
    "reacher": 22970,
    "dinners": 29236,
    "vincenzo": 24712,
    "##け": 30180,
    "[unused171]": 176,
    "[unused288]": 293,
    "##ents": 11187,
    "strokes": 13692,
    "helm": 16254,
    "convinces": 19480,
    "warned": 7420,
    "matthew": 5487,
    "youth": 3360,
    "backstage": 20212,
    "ruled": 5451,
    "felix": 8383,
    "heaviest": 26858,
    "[unused906]": 911,
    "royals": 15426,
    "pants": 6471,
    "##hale": 15238,
    "newsweek": 26948,
    "varies": 9783,
    "berry": 10498,
    "townland": 23635,
    "several": 2195,
    "inc": 4297,
    "derbyshire": 15207,
    "##bility": 8553,
    "dial": 13764,
    "displayed": 6913,
    "oversight": 15709,
    "[unused63]": 64,
    "describes": 5577,
    "bra": 11655,
    "cree": 27831,
    "56th": 29087,
    "hats": 16717,
    "118": 12963,
    "lucan": 20764,
    "freestyle": 9817,
    "sweetly": 22557,
    "attache": 29489,
    "defence": 4721,
    "э": 1208,
    "purposes": 5682,
    "mature": 9677,
    "fantastic": 10392,
    "survives": 13655,
    "pontifical": 22362,
    "altitude": 7998,
    "admiral": 5902,
    "courier": 18092,
    "##37": 24434,
    "##ography": 9888,
    "armored": 10612,
    "vocational": 13099,
    "coordinated": 14206,
    "1861": 6863,
    "bangladeshi": 24267,
    "softball": 12585,
    "autonomy": 12645,
    "##ted": 3064,
    "security": 3036,
    "plant": 3269,
    "classics": 10002,
    "166": 18610,
    "##ean": 11219,
    "whatsoever": 18971,
    "enriched": 25202,
    "##meister": 28824,
    "##akh": 27573,
    "meaningful": 15902,
    "charter": 6111,
    "##vsky": 15904,
    "##ße": 17499,
    "guys": 4364,
    "[unused779]": 784,
    "puppet": 13997,
    "absolute": 7619,
    "leased": 12019,
    "pamphlet": 19899,
    "fortification": 23050,
    "grocery": 13025,
    "gesellschaft": 27482,
    "##ged": 5999,
    "sang": 6369,
    "taste": 5510,
    "burlington": 15552,
    "cheyenne": 17778,
    "conway": 14783,
    "donna": 10972,
    "manifest": 19676,
    "incident": 5043,
    "##হ": 29913,
    "severn": 24753,
    "rosie": 15820,
    "ngo": 17895,
    "bored": 11471,
    "hee": 18235,
    "##nami": 28987,
    "##atory": 14049,
    "hooper": 23717,
    "breach": 12510,
    "officially": 3985,
    "stocked": 24802,
    "##lit": 15909,
    "##rse": 22573,
    "grandparents": 14472,
    "hunter": 4477,
    "advocated": 11886,
    "straighten": 28568,
    "hen": 21863,
    "##47": 22610,
    "hilda": 21589,
    "##crats": 23423,
    "corinne": 26879,
    "##cic": 19053,
    "ɛ": 1115,
    "goes": 3632,
    "[unused39]": 40,
    "[unused251]": 256,
    "##lowe": 27663,
    "muddy": 15405,
    "2009": 2268,
    "wolverhampton": 20085,
    "sergei": 14543,
    "numerical": 15973,
    "[unused619]": 624,
    "playoffs": 7555,
    "hutton": 20408,
    "bronze": 4421,
    "violet": 8766,
    "26th": 14935,
    "##nish": 24014,
    "[unused912]": 917,
    "curt": 20099,
    "boycott": 17757,
    "crumbling": 24827,
    "clarify": 25037,
    "##bari": 25990,
    "provoke": 27895,
    "##ren": 7389,
    "southampton": 11833,
    "08": 5511,
    "emily": 6253,
    "roe": 20944,
    "leafs": 21349,
    "##duced": 28901,
    "linen": 17517,
    "184": 19681,
    "[unused574]": 579,
    "##ifier": 18095,
    "120": 6036,
    "prefect": 19402,
    "storm": 4040,
    "mar": 9388,
    "warn": 11582,
    "triassic": 29529,
    "stored": 8250,
    "pipeline": 13117,
    "<": 1026,
    "wingspan": 9635,
    "##ケ": 30229,
    "retrospective": 15354,
    "totaling": 21798,
    "h": 1044,
    "gearbox": 22227,
    "neoclassical": 22657,
    "asking": 4851,
    "cringed": 23952,
    "restricting": 26996,
    "pressing": 7827,
    "charitable": 11128,
    "oaks": 13396,
    "enthusiast": 29550,
    "relying": 18345,
    "trailer": 9117,
    "ms": 5796,
    "modernism": 27254,
    "conduct": 6204,
    "landscaping": 28404,
    "ヘ": 1721,
    "assent": 27195,
    "cartwright": 27513,
    "locking": 14889,
    "solicitor": 15468,
    "bryson": 26845,
    "ag": 12943,
    "amplified": 26986,
    "mega": 13164,
    "##↑": 30112,
    "61": 6079,
    "regulator": 21618,
    "childless": 26983,
    "minsk": 20790,
    "purposely": 24680,
    "275": 17528,
    "principles": 6481,
    "liz": 9056,
    "##len": 7770,
    "##riders": 28116,
    "ignatius": 26841,
    "name": 2171,
    "forms": 3596,
    "##building": 25820,
    "encouraging": 11434,
    "abu": 8273,
    "guess": 3984,
    "homosexual": 15667,
    "jacobs": 12988,
    "[unused229]": 234,
    "nueva": 24536,
    "middletown": 28747,
    "create": 3443,
    "##hn": 7295,
    "##dai": 21351,
    "informally": 21858,
    "den": 7939,
    "trinidad": 11856,
    "##ira": 7895,
    "decision": 3247,
    "joe": 3533,
    "identity": 4767,
    "bottle": 5835,
    "bulging": 27569,
    "tae": 22297,
    "##ettes": 26592,
    "approved": 4844,
    "dona": 24260,
    "write": 4339,
    "preferences": 18394,
    "[unused89]": 90,
    "84": 6391,
    "abolished": 8961,
    "nguyen": 16577,
    "careful": 6176,
    "shaky": 15311,
    "fontana": 27182,
    "##hma": 22444,
    "##aq": 20784,
    "[unused544]": 549,
    "ai": 9932,
    "equilibrium": 14442,
    "milan": 6954,
    "locating": 26339,
    "bucharest": 14261,
    "commenced": 8420,
    "epstein": 26646,
    "canadian": 3010,
    "fabio": 25616,
    "overtook": 28920,
    "motorcycle": 9055,
    "##ichi": 11319,
    "radicals": 23618,
    "2021": 25682,
    "combined": 4117,
    "139": 16621,
    "classical": 4556,
    "[unused711]": 716,
    "[unused850]": 855,
    "##itis": 13706,
    "forum": 7057,
    "marlon": 25861,
    "swedish": 4467,
    "##mind": 23356,
    "1783": 15331,
    "dissipated": 22572,
    "##itarian": 25691,
    "##kker": 23793,
    "brent": 12895,
    "milk": 6501,
    "photographed": 16164,
    "natal": 17489,
    "appears": 3544,
    "flinch": 23224,
    "stride": 18045,
    "shortage": 15843,
    "southwest": 4943,
    "redding": 26687,
    "stamp": 11359,
    "feminist": 10469,
    "doe": 18629,
    "っ": 1663,
    "abbess": 28010,
    "charges": 5571,
    "rocks": 5749,
    "1902": 5774,
    "publisher": 6674,
    "upgrade": 12200,
    "##chen": 8661,
    "andersen": 18308,
    "almond": 26011,
    "##ayo": 28852,
    "break": 3338,
    "tucson": 17478,
    "##ի": 29772,
    "##ato": 10610,
    "hit": 2718,
    "escaped": 6376,
    "airplay": 15341,
    "roi": 25223,
    "##ser": 8043,
    "cat": 4937,
    "ranging": 7478,
    "regularly": 5570,
    "outing": 26256,
    "inserted": 12889,
    "debating": 20767,
    "reporters": 12060,
    "bowing": 26690,
    "truman": 15237,
    "empires": 23560,
    "ascending": 22316,
    "##sten": 16173,
    "collin": 22180,
    "hamlets": 21631,
    "antonio": 4980,
    "mines": 7134,
    "glider": 18788,
    "##!": 29612,
    "##wd": 21724,
    "celine": 24550,
    "bronx": 14487,
    "##sie": 11741,
    "cfa": 28125,
    "envelope": 11255,
    "exposition": 13080,
    "##bl": 16558,
    "grown": 4961,
    "pointless": 23100,
    "delicately": 28814,
    "pen": 7279,
    "ks": 29535,
    "alleviate": 24251,
    "apostolic": 11815,
    "possessive": 22105,
    "vanguard": 18332,
    "dracula": 18500,
    "天": 1811,
    "burnett": 13829,
    "張": 1844,
    "##onic": 12356,
    "1704": 27769,
    "[unused957]": 962,
    "imagined": 8078,
    "galway": 14370,
    "##ishing": 21837,
    "tri": 13012,
    "マ": 1723,
    "literally": 6719,
    "winkler": 20472,
    "toyota": 11742,
    "judah": 23022,
    "libel": 26201,
    "shrines": 22562,
    "wand": 23967,
    "soy": 25176,
    "mandolin": 17687,
    "[unused553]": 558,
    "boogie": 21495,
    "speech": 4613,
    "arabian": 13771,
    "design": 2640,
    "present": 2556,
    "[unused633]": 638,
    "reality": 4507,
    "odds": 10238,
    "loneliness": 20334,
    "jan": 5553,
    "galilee": 28928,
    "teatro": 16038,
    "hello": 7592,
    "##ort": 11589,
    "confronting": 26964,
    "##lum": 12942,
    "downstream": 13248,
    "brotherhood": 12865,
    "bats": 12236,
    "232": 20666,
    "excerpt": 28142,
    "hitter": 18694,
    "##ace": 10732,
    "transportation": 5193,
    "##elo": 18349,
    "monday": 6928,
    "tolerance": 13986,
    "[unused663]": 668,
    "bracing": 25919,
    "rev": 7065,
    "fields": 4249,
    "##cas": 15671,
    "dahl": 27934,
    "meanings": 15383,
    "##rian": 6862,
    "##pas": 19707,
    "synth": 24203,
    "[unused278]": 283,
    "market": 3006,
    "compulsory": 14770,
    "ek": 23969,
    "460": 17267,
    "##er": 2121,
    "fen": 21713,
    "[unused224]": 229,
    "tried": 2699,
    "##verted": 26686,
    "##hrer": 17875,
    "billings": 26124,
    "##path": 15069,
    "guyana": 18786,
    "affects": 13531,
    "bangalore": 14022,
    "##quest": 15500,
    "sent": 2741,
    "[unused283]": 288,
    "[unused539]": 544,
    "minister": 2704,
    "葉": 1943,
    "desired": 9059,
    "wonders": 16278,
    "propped": 16863,
    "vulnerability": 18130,
    "menace": 19854,
    "[unused56]": 57,
    "##escu": 19434,
    "generosity": 26161,
    "chiba": 27368,
    "##rom": 21716,
    "turn": 2735,
    "##titles": 27430,
    "##scu": 28817,
    "juris": 27551,
    "##lation": 13490,
    "fault": 6346,
    "commotion": 23960,
    "power": 2373,
    "believer": 24591,
    "##hil": 19466,
    "stall": 13498,
    "educators": 19156,
    "berkshire": 15570,
    "##cu": 10841,
    "broker": 20138,
    "titanium": 23431,
    "predicting": 29458,
    "zimbabwe": 11399,
    "##church": 22743,
    "##fia": 22749,
    "nacional": 10718,
    "mackay": 17090,
    "barnet": 26864,
    "institutes": 12769,
    "[unused891]": 896,
    "endowed": 19038,
    "euclidean": 25826,
    "##stein": 8602,
    "##yle": 12844,
    "laguna": 18169,
    "stemmed": 27674,
    "##glio": 29480,
    "##ᵈ": 30034,
    "dentist": 24385,
    "cervical": 28711,
    "developer": 9722,
    "benefits": 6666,
    "switching": 11991,
    "nepali": 23418,
    "##dents": 28986,
    "##nica": 12782,
    "leases": 29597,
    "logo": 8154,
    "takeoff": 19744,
    "##yin": 25811,
    "##nat": 19833,
    "surpassing": 27097,
    "##ᴰ": 30028,
    "##ord": 8551,
    "longevity": 26906,
    "limo": 23338,
    "##onia": 12488,
    "##agger": 27609,
    "brody": 19631,
    "dreamed": 13830,
    "##orin": 28741,
    "wylie": 29152,
    "assaulted": 17536,
    "boxers": 18508,
    "plurality": 29018,
    "evaluation": 9312,
    "さ": 1656,
    "department": 2533,
    "jurisdictions": 17370,
    "##bau": 27773,
    "amusement": 9778,
    "##ith": 8939,
    "refer": 6523,
    "baptiste": 17329,
    "skinner": 17451,
    "news": 2739,
    "cipher": 27715,
    "gary": 5639,
    "ottomans": 17774,
    "annabelle": 24722,
    "void": 11675,
    "##sit": 28032,
    "supplemental": 27024,
    "##nti": 16778,
    "researchers": 6950,
    "##achal": 24409,
    "ramsay": 19460,
    "თ": 1444,
    "##emy": 26662,
    "sovereign": 11074,
    "pius": 14363,
    "##ost": 14122,
    "##ₚ": 30097,
    "stirred": 13551,
    "nouns": 19211,
    "garland": 17017,
    "diffuse": 28105,
    "cast": 3459,
    "1100": 22096,
    "clara": 10254,
    "##stra": 20528,
    "扌": 1859,
    "confident": 9657,
    "[unused264]": 269,
    "reconnaissance": 8967,
    "inclusion": 10502,
    "persistence": 28297,
    "licked": 11181,
    "deploy": 21296,
    "##anza": 16076,
    "帝": 1838,
    "woke": 8271,
    "neighbourhoods": 27535,
    "radius": 12177,
    "##break": 23890,
    "transparent": 13338,
    "sheen": 20682,
    "##dale": 5634,
    "##cano": 23803,
    "acid": 5648,
    "plank": 24000,
    "wonderful": 6919,
    "constituents": 24355,
    "##cey": 25810,
    "sediment": 19671,
    "enterprise": 6960,
    "hydra": 26018,
    "tracing": 16907,
    "##fires": 26332,
    "carousel": 27628,
    "additionally": 5678,
    "accidental": 17128,
    "assisting": 13951,
    "1603": 25625,
    "bits": 9017,
    "asha": 24595,
    "chico": 22136,
    "storylines": 22628,
    "protruding": 23868,
    "electric": 3751,
    "uci": 14504,
    "babylon": 17690,
    "fans": 4599,
    "##hiro": 18334,
    "##清": 30429,
    "registrar": 24580,
    "gregorian": 25847,
    "##rwin": 27349,
    "obsession": 17418,
    "basic": 3937,
    "enabled": 9124,
    "structures": 5090,
    "##ife": 29323,
    "austen": 24177,
    "playing": 2652,
    "nostrils": 15325,
    "expeditionary": 15372,
    "`": 1036,
    "##ogan": 21131,
    "284": 26871,
    "bandits": 19088,
    "etc": 4385,
    "staten": 24161,
    "##ril": 15928,
    "heir": 8215,
    "##ome": 8462,
    "almighty": 26668,
    "felicity": 27357,
    "sustainable": 9084,
    "1878": 7261,
    "convince": 8054,
    "wilmington": 17025,
    "interdisciplinary": 18593,
    "##quel": 22197,
    "orleans": 5979,
    "ultimatum": 29227,
    "crabs": 26076,
    "東": 1879,
    "font": 15489,
    "shot": 2915,
    "280": 13427,
    "##hui": 20552,
    "precious": 9062,
    "##ject": 20614,
    "tenderness": 24605,
    "pig": 10369,
    "exports": 14338,
    "875": 27658,
    "nomenclature": 23718,
    "##+": 29622,
    "1939": 3912,
    "nevada": 7756,
    "↓": 1586,
    "wryly": 28325,
    "highland": 10983,
    "pentagon": 20864,
    "ankle": 10792,
    "passions": 25289,
    "skopje": 29255,
    "##section": 29015,
    "these": 2122,
    "[unused718]": 723,
    "steal": 8954,
    "rally": 8320,
    "critic": 6232,
    "##म": 29867,
    "chad": 9796,
    "egyptians": 23437,
    "brutality": 24083,
    "scholarships": 15691,
    "mackenzie": 11407,
    "matthews": 12351,
    "det": 20010,
    "exhibits": 10637,
    "sought": 4912,
    "1866": 7647,
    "##train": 23654,
    "bea": 26892,
    "##ople": 27469,
    "হ": 1377,
    "shave": 27545,
    "##ding": 4667,
    "dixon": 11357,
    "townsville": 27492,
    "conor": 20545,
    "slant": 27474,
    "philology": 29286,
    "dfb": 28894,
    "hurst": 26405,
    "[unused124]": 129,
    "searing": 25764,
    "##ious": 6313,
    "killing": 4288,
    "##kovich": 28195,
    "უ": 1454,
    "supervision": 10429,
    "nee": 7663,
    "acute": 11325,
    "philipp": 20765,
    "helicopter": 7739,
    "vibrating": 24987,
    "##rag": 29181,
    "solomon": 9168,
    "prophet": 12168,
    "secretariat": 15128,
    "litter": 19070,
    "cheryl": 19431,
    "biker": 28988,
    "##oza": 25036,
    "101": 7886,
    "observation": 8089,
    "##ulating": 10924,
    "hits": 4978,
    "doubles": 7695,
    "smyth": 28103,
    "gaped": 23832,
    "##write": 26373,
    "then": 2059,
    "fully": 3929,
    "critics": 4401,
    "build": 3857,
    "nicholson": 16955,
    "maximilian": 18838,
    "blush": 16688,
    "invitations": 29492,
    "tiles": 13262,
    "##ative": 8082,
    "archipelago": 13888,
    "2015": 2325,
    "independents": 23756,
    "1846": 9244,
    "nathan": 7150,
    "segregated": 24382,
    "slamming": 15209,
    "##asian": 24145,
    "mummy": 22788,
    "mohamed": 14467,
    "scratching": 20291,
    "neighbor": 11429,
    "##keepers": 24764,
    "info": 18558,
    "##liga": 14715,
    "[unused956]": 961,
    "lift": 6336,
    "persisted": 19035,
    "newport": 9464,
    "lore": 19544,
    "ministers": 7767,
    "regained": 11842,
    "gale": 14554,
    "##trust": 24669,
    "123": 13138,
    "##nified": 25201,
    "anxious": 11480,
    "inquiries": 27050,
    "##iana": 11410,
    "[unused992]": 997,
    "assuming": 10262,
    "unfinished": 14342,
    "placing": 6885,
    "waterfalls": 24236,
    "##sion": 10992,
    "challenges": 7860,
    "##elles": 22869,
    "offence": 15226,
    "utilize": 16462,
    "afforded": 22891,
    "##ily": 6588,
    "kelley": 19543,
    "hound": 19598,
    "alta": 23647,
    "##rigue": 27611,
    "linguistic": 12158,
    "slipping": 11426,
    "alps": 13698,
    "periodically": 18043,
    "力": 1778,
    "coverage": 6325,
    "rangers": 7181,
    "chong": 24008,
    "shang": 29382,
    "intercontinental": 18725,
    "ev": 23408,
    "##rand": 13033,
    "straits": 18849,
    "sci": 16596,
    "storing": 23977,
    "volcano": 12779,
    "prepared": 4810,
    "francais": 22357,
    "successful": 3144,
    "graders": 23256,
    "weaponry": 22711,
    "fishes": 21995,
    "##crest": 25313,
    "lasts": 16180,
    "seized": 8243,
    "showing": 4760,
    "##ミ": 30250,
    "hammersmith": 28420,
    "fellow": 3507,
    "mclaughlin": 23720,
    "thud": 20605,
    "##orestation": 25794,
    "minimal": 10124,
    "dyed": 28432,
    "park": 2380,
    "cobra": 16604,
    "##ox": 11636,
    "ウ": 1696,
    "preparing": 8225,
    "##ndi": 16089,
    "##ves": 6961,
    "##bbling": 15343,
    "decca": 21079,
    "ankara": 20312,
    "##ᄎ": 30001,
    "reign": 5853,
    "loyalist": 23414,
    "lucius": 15639,
    "218": 20741,
    "prc": 26141,
    "##frid": 27439,
    "london": 2414,
    "viktor": 13489,
    "promoting": 7694,
    "monetary": 12194,
    "dipping": 23427,
    "bernie": 15941,
    "##rdon": 28176,
    "valle": 20171,
    "colleen": 28385,
    "##ᵤ": 30044,
    "p": 1052,
    "##rad": 12173,
    "nixon": 11296,
    "aide": 14895,
    "£100": 27708,
    "arts": 2840,
    "chapel": 4970,
    "paradise": 9097,
    "##mins": 21266,
    "messed": 18358,
    "shutter": 28180,
    "hurled": 24025,
    "##metric": 12589,
    "##₎": 30088,
    "solos": 24339,
    "##cut": 12690,
    "##ele": 12260,
    "kramer": 16322,
    "##ᅡ": 30006,
    "##inton": 27028,
    "fascist": 14870,
    "resistant": 13070,
    "constantin": 27991,
    "jace": 10352,
    "where": 2073,
    "germain": 19192,
    "wiping": 14612,
    "metadata": 27425,
    "soared": 29127,
    "##49": 26224,
    "delegates": 10284,
    "##ool": 13669,
    "isbn": 3175,
    "metaphor": 19240,
    "[unused118]": 123,
    "depth": 5995,
    "mikey": 25998,
    "##etched": 29574,
    "gaston": 18572,
    "christchurch": 15880,
    "nouveau": 25272,
    "responsive": 26651,
    "incorporated": 5100,
    "abuse": 6905,
    "provence": 19923,
    "rich": 4138,
    "detrimental": 29172,
    "##formed": 29021,
    "[unused269]": 274,
    "collateral": 24172,
    "molecular": 8382,
    "##nza": 16786,
    "reich": 14365,
    "pee": 21392,
    "open": 2330,
    "define": 9375,
    "oakley": 28876,
    "385": 24429,
    "commemoration": 22377,
    "skaters": 24789,
    "##ك": 29835,
    "burning": 5255,
    "heraldic": 28867,
    "determined": 4340,
    "roche": 20162,
    "cite": 21893,
    "mesopotamia": 25889,
    "twelve": 4376,
    "sailed": 7434,
    "romanesque": 17135,
    "##ᄃ": 29993,
    "microscopic": 26396,
    "anxiety": 10089,
    "danzig": 26669,
    "wrestling": 4843,
    "slovakia": 10991,
    "slot": 10453,
    "likelihood": 16593,
    "awakening": 16936,
    "draught": 25349,
    "blogs": 23012,
    "baseline": 26163,
    "amusing": 19142,
    "pc": 7473,
    "announcer": 14073,
    "##oin": 28765,
    "accepted": 3970,
    "rig": 19838,
    "encompassed": 24058,
    "departmental": 28912,
    "leopard": 16240,
    "[unused496]": 501,
    "grayson": 17556,
    "##⊆": 30138,
    "##bill": 24457,
    "##ホ": 30248,
    "[unused645]": 650,
    "soldier": 5268,
    "[unused913]": 918,
    "diocesan": 18680,
    "objection": 22224,
    "dans": 18033,
    "muir": 23110,
    "dime": 27211,
    "mlb": 10901,
    "oblique": 20658,
    "theological": 9208,
    "theirs": 17156,
    "##zhi": 19436,
    "volcanoes": 23694,
    "cracking": 15729,
    "##aea": 21996,
    "particle": 10811,
    "dumont": 25830,
    "tipperary": 17333,
    "ᵃ": 1496,
    "was": 2001,
    "ibn": 7839,
    "cai": 29080,
    "constituted": 11846,
    "##њ": 29763,
    "##rro": 18933,
    "nursery": 13640,
    "upbringing": 24615,
    "ョ": 1730,
    "##lyn": 9644,
    "tablets": 17596,
    "magazine": 2932,
    "competitions": 6479,
    "scrub": 18157,
    "huddled": 20258,
    "श": 1336,
    "public": 2270,
    "##ny": 4890,
    "fumbled": 20054,
    "demonstrated": 7645,
    "herbs": 17561,
    "peng": 26473,
    "cult": 8754,
    "initial": 3988,
    "miniature": 12973,
    "peace": 3521,
    "voyages": 21993,
    "specifies": 27171,
    "##del": 9247,
    "sleeve": 10353,
    "introducing": 10449,
    "legislature": 6372,
    "[unused194]": 199,
    "302": 22060,
    "##ori": 10050,
    "regimes": 25228,
    "desk": 4624,
    "draped": 15098,
    "horseback": 19926,
    "poorly": 9996,
    "bergman": 24544,
    "advocacy": 12288,
    "##active": 19620,
    "porch": 7424,
    "acres": 4631,
    "margin": 7785,
    "cues": 23391,
    "persecuted": 27666,
    "##ₖ": 30094,
    "##ulates": 18969,
    "disappointed": 9364,
    "##opsis": 22599,
    "voting": 6830,
    "recreation": 8640,
    "alloy": 17564,
    "asserted": 13647,
    "alba": 18255,
    "witchcraft": 21599,
    "lifeboat": 23450,
    "##ode": 10244,
    "scream": 6978,
    "thematic": 23539,
    "dew": 24903,
    "rattle": 23114,
    "eats": 20323,
    "six": 2416,
    "causing": 4786,
    "imply": 19515,
    "accents": 24947,
    "##chon": 24561,
    "##ff": 4246,
    "mercer": 13081,
    "provoked": 19157,
    "monique": 26194,
    "##lia": 6632,
    "platt": 28005,
    "##uses": 25581,
    "gong": 17242,
    "##inas": 15227,
    "hayes": 10192,
    "[unused907]": 912,
    "macarthur": 17719,
    "berwick": 24957,
    "##原": 30313,
    "cape": 4880,
    "[unused153]": 158,
    "wagner": 10304,
    "giuseppe": 12574,
    "isaiah": 18850,
    "##horn": 9769,
    "choosing": 10549,
    "##ου": 26789,
    "mining": 5471,
    "ლ": 1447,
    "polk": 20819,
    "taliban": 16597,
    "robbed": 20114,
    "paz": 18183,
    "##text": 18209,
    "english": 2394,
    "sharon": 10666,
    "freddy": 19343,
    "inch": 4960,
    "churches": 5231,
    "miners": 11257,
    "banning": 21029,
    "aid": 4681,
    "buckle": 22853,
    "credentials": 22496,
    "champ": 24782,
    "gathering": 7215,
    "mood": 6888,
    "ying": 20879,
    "hmm": 17012,
    "restless": 15035,
    "42nd": 21373,
    "alex": 4074,
    "tong": 15740,
    "yun": 22854,
    "terence": 22677,
    "ュ": 1729,
    "mari": 16266,
    "lipstick": 22359,
    "addressed": 8280,
    "hendricks": 28895,
    "[unused545]": 550,
    "soup": 11350,
    "competent": 17824,
    "ս": 1234,
    "positioned": 10959,
    "motivation": 14354,
    "boilers": 20412,
    "spotting": 27963,
    "town": 2237,
    "variant": 8349,
    "traffic": 4026,
    "ri": 15544,
    "restricted": 7775,
    "rabbit": 10442,
    "zebra": 29145,
    "rhymes": 24468,
    "creole": 21414,
    "##hre": 28362,
    "manual": 6410,
    "lillian": 19344,
    "196": 20035,
    "mouse": 8000,
    "##enia": 19825,
    "dispatched": 14501,
    "headquartered": 9403,
    "crimes": 6997,
    "fbi": 8495,
    "upside": 14961,
    "serialized": 27289,
    "糹": 1934,
    "intermediate": 7783,
    "##olin": 18861,
    "##rner": 18703,
    "##nator": 27413,
    "genealogical": 29606,
    "offer": 3749,
    "mazda": 25286,
    "southward": 22161,
    "[unused525]": 530,
    "funk": 11962,
    "137": 14989,
    "[unused874]": 879,
    "##ت": 29817,
    "cod": 19429,
    "##atter": 20097,
    "shards": 23327,
    "##sti": 16643,
    "##会": 30289,
    "winners": 4791,
    "coffin": 13123,
    "a1": 17350,
    "situated": 4350,
    "alumni": 9441,
    "##48": 18139,
    "##lou": 23743,
    "##ffie": 29055,
    "##eaux": 25639,
    "##yst": 27268,
    "amazement": 21606,
    "mania": 29310,
    "templar": 27850,
    "##ogist": 22522,
    "wil": 19863,
    "district": 2212,
    "nod": 7293,
    "[unused879]": 884,
    "operational": 6515,
    "striking": 8478,
    "##29": 24594,
    "slack": 19840,
    "particular": 3327,
    "middlesex": 13654,
    "amelie": 25285,
    "accessed": 11570,
    "kay": 10905,
    "gin": 18353,
    "[unused261]": 266,
    "reductions": 25006,
    "##space": 23058,
    "valley": 3028,
    "vertex": 19449,
    "produce": 3965,
    "##bit": 16313,
    "##pie": 14756,
    "##ite": 4221,
    "luke": 5355,
    "chasing": 11777,
    "worshipped": 22876,
    "overlooked": 17092,
    "avoidance": 24685,
    "ecosystem": 16927,
    "##dication": 25027,
    "playwright": 11170,
    "controversial": 6801,
    "fibre": 20962,
    "swelling": 18348,
    "##є": 29759,
    "line": 2240,
    "m3": 29061,
    "[unused2]": 3,
    "warwickshire": 18430,
    "##yra": 19563,
    "chatting": 22331,
    "earlier": 3041,
    "##uck": 12722,
    "##vili": 21661,
    "##ida": 8524,
    "upgrading": 25925,
    "assess": 14358,
    "hurdles": 18608,
    "##sol": 19454,
    "annette": 22521,
    "pont": 21179,
    "nylon": 27201,
    "exemplified": 28593,
    "##alis": 13911,
    "yields": 16189,
    "##movable": 25661,
    "bombardment": 10400,
    "patrolling": 24248,
    "##rsten": 19020,
    "ᄅ": 1458,
    "##ku": 5283,
    "grady": 19011,
    "friedman": 18486,
    "chung": 15972,
    "throbbing": 17061,
    "##kr": 21638,
    "leicestershire": 20034,
    "emergence": 14053,
    "unfortunately": 6854,
    "hughes": 8099,
    "coward": 16592,
    "specialized": 7772,
    "werewolves": 18306,
    "meat": 6240,
    "nowhere": 7880,
    "scraping": 23704,
    "boarding": 9405,
    "1773": 19916,
    "##baum": 14898,
    "caste": 14542,
    "sierra": 7838,
    "turtles": 16489,
    "θ": 1162,
    "banks": 5085,
    "##sby": 14478,
    "intersect": 29261,
    "[unused629]": 634,
    "nme": 23770,
    "ת": 1267,
    "integrate": 17409,
    "burnt": 11060,
    "bound": 5391,
    "[unused17]": 18,
    "wave": 4400,
    "##tius": 22638,
    "##main": 24238,
    "##ᶜ": 30046,
    "幸": 1841,
    "tehran": 13503,
    "interior": 4592,
    "##ving": 6455,
    "td": 14595,
    "awful": 9643,
    "programmer": 20273,
    "ye": 6300,
    "##boro": 12691,
    "believe": 2903,
    "ames": 19900,
    "calhoun": 22982,
    "##cript": 23235,
    "reacts": 27325,
    "##nage": 27031,
    "##ذ": 29822,
    "##ragan": 28905,
    "##md": 26876,
    "##3d": 29097,
    "ᅪ": 1476,
    "##食": 30504,
    "fired": 5045,
    "carlton": 12989,
    "bucks": 14189,
    "##e": 2063,
    "arguing": 9177,
    "batter": 23801,
    "restraints": 28054,
    "##kei": 29501,
    "digits": 16648,
    "qualified": 4591,
    "pup": 26781,
    "drinks": 8974,
    "##ely": 26006,
    "unidentified": 20293,
    "##κ": 29726,
    "mental": 5177,
    "exodus": 16388,
    "龍": 1982,
    "democrats": 8037,
    "duration": 9367,
    "wentworth": 20572,
    "mechanics": 9760,
    "nope": 16780,
    "coliseum": 18338,
    "envisioned": 18035,
    "cork": 8513,
    "facilitates": 27777,
    "##ese": 6810,
    "##rut": 22134,
    "reissue": 17173,
    "boxer": 10423,
    "ग": 1317,
    "bottoms": 24196,
    "45th": 24634,
    "trolls": 27980,
    "parents": 3008,
    "designate": 24414,
    "language": 2653,
    "1755": 21417,
    "##mt": 20492,
    "chess": 7433,
    "aesthetics": 20749,
    "volume": 3872,
    "presents": 7534,
    "usable": 24013,
    "stories": 3441,
    "tackle": 11147,
    "abigail": 15983,
    "huffed": 25014,
    "intersections": 26540,
    "kilograms": 18857,
    "##ј": 29761,
    "hobby": 17792,
    "##kyu": 23076,
    "##izes": 10057,
    "bromwich": 27888,
    "single": 2309,
    "##aina": 27971,
    "frederic": 15296,
    "rivalry": 10685,
    "implies": 12748,
    "attorney": 4905,
    "ん": 1691,
    "##llet": 22592,
    "metacritic": 14476,
    "##obe": 20891,
    "##lco": 22499,
    "ה": 1245,
    "females": 3801,
    "advised": 9449,
    "hostage": 13446,
    "##grating": 28183,
    "farm": 3888,
    "clothing": 5929,
    "malmo": 23643,
    "notation": 14869,
    "##ђ": 29758,
    "##fight": 20450,
    "fry": 14744,
    "##⁄": 30070,
    "stimulate": 23216,
    "mike": 3505,
    "sweden": 4701,
    "nrl": 20686,
    "crocodile": 21843,
    "411": 27517,
    "argentina": 5619,
    "##raction": 25533,
    "provide": 3073,
    "southbound": 19751,
    "cardiovascular": 22935,
    "fingerprints": 27556,
    "##shed": 14740,
    "windy": 27370,
    "##ᅲ": 30016,
    "bodo": 28137,
    "migrants": 16836,
    "region": 2555,
    "##sions": 27466,
    "fontaine": 25749,
    "[unused342]": 347,
    "celaena": 29252,
    "坂": 1803,
    "schultz": 22378,
    "auguste": 20758,
    "protocol": 8778,
    "em": 7861,
    "##just": 29427,
    "fairfax": 17833,
    "##न": 29863,
    "win": 2663,
    "joint": 4101,
    "economies": 18730,
    "wolff": 23498,
    "##encia": 27742,
    "sunday": 4465,
    "groove": 14100,
    "##ulo": 18845,
    "newscast": 20306,
    "slovenian": 16583,
    "elusive": 26475,
    "neat": 15708,
    "crusade": 16282,
    "rene": 10731,
    "35th": 20198,
    "compound": 7328,
    "innovation": 8144,
    "collections": 6407,
    "incidents": 10444,
    "fiscal": 10807,
    "actions": 4506,
    "##劉": 30303,
    "barony": 19365,
    "away": 2185,
    "##fo": 14876,
    "catcher": 13795,
    "marne": 25823,
    "checking": 9361,
    "require": 5478,
    "crosby": 14282,
    "barges": 27712,
    "##道": 30483,
    "congressman": 12295,
    "##yn": 6038,
    "##4th": 26724,
    "gupta": 20512,
    "##oss": 15094,
    "##rop": 18981,
    "propose": 16599,
    "given": 2445,
    "bishops": 8414,
    "clarkson": 18648,
    "##wg": 27767,
    "kills": 8563,
    "crunch": 24514,
    "avail": 24608,
    "look": 2298,
    "subsidy": 28768,
    "##osition": 19234,
    "bu": 20934,
    "gunshot": 22077,
    "boise": 23193,
    "mammal": 25476,
    "##monium": 26387,
    "intimidated": 28028,
    "desires": 14714,
    "tamil": 6008,
    "[unused548]": 553,
    "deer": 8448,
    "swept": 7260,
    "sock": 28407,
    "##ʂ": 29695,
    "eligibility": 11395,
    "rm": 28549,
    "symptoms": 8030,
    "rugged": 17638,
    "maddie": 17805,
    "rim": 11418,
    "firearm": 23646,
    "##і": 29760,
    "nicknamed": 9919,
    "persuade": 13984,
    "##ni": 3490,
    "malone": 16321,
    "flavour": 28126,
    "experiences": 6322,
    "squeezed": 7757,
    "##ulated": 8898,
    "airports": 13586,
    "prussian": 10734,
    "##wig": 16279,
    "##edes": 18352,
    "coyote": 20457,
    "thrust": 7400,
    "asteroid": 12175,
    "##sur": 26210,
    "portal": 9445,
    "司": 1791,
    "expeditions": 15014,
    "藤": 1944,
    "java": 9262,
    "##ride": 15637,
    "affinity": 16730,
    "furrowed": 20555,
    "##oids": 17086,
    "[unused846]": 851,
    "douglass": 27485,
    "##urai": 24804,
    "contracted": 11016,
    "##omo": 19506,
    "191": 19871,
    "reforming": 29455,
    "condemning": 28525,
    "aluminium": 14794,
    "crystal": 6121,
    "hugo": 9395,
    "aerial": 9682,
    "progression": 14967,
    "[unused392]": 397,
    "aligned": 13115,
    "booked": 17414,
    "##film": 23665,
    "##ize": 4697,
    "₈": 1555,
    "tallest": 13747,
    "☆": 1621,
    "collecting": 9334,
    "centennial": 15483,
    "shitty": 28543,
    "ᄌ": 1464,
    "nipples": 28124,
    "⁸": 1542,
    "##rooms": 29020,
    "lasted": 6354,
    "1": 1015,
    "##bane": 27543,
    "respectable": 19416,
    "charismatic": 23916,
    "developing": 4975,
    "transition": 6653,
    "derelict": 28839,
    "shouting": 11273,
    "competitors": 10159,
    "requiem": 21199,
    "tiger": 6816,
    "pei": 26850,
    "slug": 23667,
    "swiss": 5364,
    "75": 4293,
    "discoveries": 15636,
    "hilly": 22800,
    "atmosphere": 7224,
    "##dance": 25514,
    "##59": 28154,
    "##oney": 17791,
    "##nx": 26807,
    "cell": 3526,
    "revisions": 24699,
    "1850s": 16488,
    "translations": 11913,
    "wandered": 13289,
    "475": 28245,
    "dangerous": 4795,
    "extinct": 8548,
    "midlands": 13256,
    "saying": 3038,
    "graduating": 6800,
    "cannons": 17138,
    "##chrome": 20366,
    "##sche": 22842,
    "##kiewicz": 28563,
    "eu": 7327,
    "boards": 7923,
    "##σ": 29733,
    "hotel": 3309,
    "##lino": 25226,
    "congressional": 7740,
    "mcintyre": 24564,
    "reused": 26513,
    "inlet": 15824,
    "widening": 17973,
    "uneasy": 15491,
    "teach": 6570,
    "aka": 9875,
    "streaming": 11058,
    "necessitated": 29611,
    "facing": 5307,
    "[unused86]": 87,
    "##pment": 24073,
    "analyst": 12941,
    "tavi": 24283,
    "undo": 25672,
    "heavily": 4600,
    "isis": 18301,
    "murderers": 28882,
    "grupo": 26678,
    "suffrage": 15178,
    "subconscious": 27952,
    "admission": 9634,
    "composer": 4543,
    "there": 2045,
    "instrument": 6602,
    "sunny": 11559,
    "##nc": 12273,
    "alabama": 6041,
    "norm": 13373,
    "##lass": 27102,
    "avenue": 3927,
    "snails": 13482,
    "##iens": 24836,
    "tee": 17170,
    "poetic": 13805,
    "dread": 14436,
    "##ssion": 28231,
    "trophies": 22236,
    "blake": 6511,
    "62": 5786,
    "military": 2510,
    "gaza": 14474,
    "##nos": 15460,
    "imp": 17727,
    "hometown": 9627,
    "urine": 17996,
    "paranoid": 19810,
    "solitude": 22560,
    "##ptive": 24971,
    "[unused727]": 732,
    "dodgers": 13391,
    "古": 1789,
    "fluttering": 25001,
    "##hal": 8865,
    "watered": 27129,
    "##»": 29663,
    "congregations": 16850,
    "manila": 9011,
    "[unused270]": 275,
    "writing": 3015,
    "199": 20713,
    "[unused617]": 622,
    "##moor": 17622,
    "222": 19015,
    "##copic": 26461,
    "concepts": 8474,
    "##rata": 14660,
    "ı": 1104,
    "hurricane": 7064,
    "breakout": 25129,
    "##pressive": 27484,
    "oboe": 22523,
    "samuel": 5212,
    "##ppet": 29519,
    "##33": 22394,
    "hiroshima": 20168,
    "##ト": 30240,
    "fluorescent": 22184,
    "ecological": 12231,
    "1690": 24765,
    "myths": 17218,
    "gora": 26967,
    "sister": 2905,
    "sliding": 8058,
    "meadows": 13524,
    "smells": 14747,
    "strongly": 6118,
    "hurting": 11878,
    "##otti": 21325,
    "asthma": 26180,
    "ramirez": 15206,
    "liturgy": 21176,
    "melvin": 20993,
    "fish": 3869,
    "##evic": 17726,
    "html": 16129,
    "denver": 7573,
    "modify": 19933,
    "compete": 5566,
    "∅": 1593,
    "##mpt": 27718,
    "therapist": 19294,
    "cannon": 8854,
    "goran": 28356,
    "##yon": 14001,
    "urbana": 27929,
    "1654": 27445,
    "##min": 10020,
    ",": 1010,
    "[unused670]": 675,
    "envoy": 19918,
    "drafting": 21168,
    "interested": 4699,
    "tanzania": 11959,
    "##hra": 13492,
    "icelandic": 14024,
    "damascus": 16094,
    "gleaming": 18242,
    "chalmers": 29069,
    "327": 28469,
    "parks": 6328,
    "ள": 1393,
    "##he": 5369,
    "casino": 9270,
    "##rret": 27032,
    "knew": 2354,
    "breeds": 15910,
    "chemotherapy": 27144,
    "asserting": 27644,
    "agra": 29542,
    "stool": 14708,
    "##ucher": 22368,
    "##bar": 8237,
    "##llas": 25816,
    "expose": 14451,
    "##rred": 20529,
    "malvern": 28082,
    "byrne": 14928,
    "irrigation": 12442,
    "magnet": 16853,
    "cache": 17053,
    "bam": 25307,
    "annum": 28907,
    "grey": 4462,
    "##pes": 10374,
    "##氵": 30420,
    "twinned": 25901,
    "##dt": 11927,
    "musa": 23154,
    "homo": 24004,
    "##mani": 20799,
    "xml": 20950,
    "259": 25191,
    "currency": 9598,
    "##ema": 14545,
    "squeeze": 11025,
    "berth": 17064,
    "##sd": 16150,
    "furnace": 17533,
    "[unused0]": 1,
    "[unused937]": 942,
    "executive": 3237,
    "spun": 7455,
    "##ctor": 16761,
    "convent": 10664,
    "renovations": 15576,
    "fiction": 4349,
    "fictional": 7214,
    "[unused770]": 775,
    "[unused825]": 830,
    "brook": 9566,
    "人": 1756,
    "leadership": 4105,
    "opponent": 7116,
    "nonsense": 14652,
    "assignments": 14799,
    "highly": 3811,
    "boating": 23639,
    "geraldine": 26987,
    "##÷": 29669,
    "##夏": 30334,
    "obscure": 14485,
    "##nna": 9516,
    "##nding": 15683,
    "shakes": 10854,
    "##bir": 17706,
    "crosses": 7821,
    "##bians": 26376,
    "paying": 7079,
    "navajo": 22440,
    "##eg": 13910,
    "syllable": 16353,
    "fray": 25975,
    "xv": 15566,
    "##花": 30466,
    "edna": 21051,
    "fulfilled": 16829,
    "2005": 2384,
    "enjoyable": 22249,
    "apply": 6611,
    "##urance": 25863,
    "consortium": 12360,
    "battered": 17548,
    "##bah": 24206,
    "mortal": 9801,
    "jacqueline": 17551,
    "farmers": 6617,
    "##nar": 11802,
    "##orn": 9691,
    "incomplete": 12958,
    "ٹ": 1301,
    "saber": 25653,
    "evil": 4763,
    "bounded": 10351,
    "##り": 30212,
    "surgeon": 9431,
    "buffalo": 6901,
    "##ara": 5400,
    "crashes": 19119,
    "goodness": 15003,
    "##wled": 28365,
    "dublin": 5772,
    "occupies": 14133,
    "economical": 21791,
    "iraq": 5712,
    "famously": 18172,
    "##yan": 7054,
    "162": 17832,
    "##ae": 6679,
    "trembling": 10226,
    "alexandre": 16971,
    "variability": 28436,
    "pierced": 16276,
    "ensured": 16316,
    "##yad": 25152,
    "often": 2411,
    "epoch": 25492,
    "walks": 7365,
    "redwood": 27552,
    "platforms": 7248,
    "impaired": 18234,
    "##勝": 30306,
    "[unused723]": 728,
    "pulse": 8187,
    "ieee": 15368,
    "bk": 23923,
    "sellers": 19041,
    "poisoned": 17672,
    "128": 11899,
    "##neo": 23585,
    "smackdown": 22120,
    "denote": 19090,
    "rides": 12271,
    "##ahu": 21463,
    "dolphin": 17801,
    "monmouth": 20433,
    "mbc": 27262,
    "barefoot": 22985,
    "[unused210]": 215,
    "personal": 3167,
    "##antly": 15706,
    "lightweight": 12038,
    "clements": 28572,
    "redundant": 21707,
    "[unused777]": 782,
    "artemis": 19063,
    "maui": 28566,
    "centenary": 17705,
    "##belle": 25766,
    "truce": 18415,
    "##stov": 29473,
    "bent": 6260,
    "atlas": 11568,
    "terrifying": 17082,
    "##mise": 28732,
    "1786": 17436,
    "rounded": 8352,
    "undergoing": 14996,
    "rods": 19485,
    "raf": 7148,
    "##op": 7361,
    "shows": 3065,
    "harmonica": 16527,
    "hertfordshire": 18889,
    "[unused566]": 571,
    "ely": 20779,
    "pens": 25636,
    "globally": 16452,
    "##loading": 18570,
    "triangular": 14023,
    "containing": 4820,
    "hispanic": 6696,
    "##iri": 15735,
    "embarrassing": 16436,
    "colombian": 13598,
    "reginald": 14435,
    "mri": 27011,
    "##lem": 16930,
    "screwed": 14180,
    "##vita": 28403,
    "心": 1849,
    "presidents": 11274,
    "ethnicity": 18240,
    "polished": 12853,
    "warrant": 10943,
    "∞": 1601,
    "exhibiting": 22922,
    "futuristic": 28971,
    "tensed": 15225,
    "1810": 11786,
    "tha": 22794,
    "stained": 9702,
    "##प": 29864,
    "##mer": 5017,
    "reasonably": 16286,
    "minded": 13128,
    "##nr": 16118,
    "forget": 5293,
    "cut": 3013,
    "##mos": 15530,
    "mile": 3542,
    "aware": 5204,
    "retailers": 16629,
    "olaf": 20514,
    "outlined": 14801,
    "##olis": 20872,
    "cheers": 21250,
    "ind": 27427,
    "pairs": 7689,
    "blacksmith": 20987,
    "##phy": 21281,
    "##ear": 14644,
    "##pres": 28994,
    "wines": 14746,
    "classic": 4438,
    "freud": 19338,
    "bingham": 24579,
    "##ec": 8586,
    "durham": 9296,
    "landscapes": 12793,
    "promoters": 26512,
    "##otide": 26601,
    "opportunities": 6695,
    "suit": 4848,
    "haven": 4033,
    "creativity": 14842,
    "##zak": 20685,
    "km²": 3186,
    "##hip": 5605,
    "##rg": 10623,
    "regina": 12512,
    "tres": 24403,
    "##cote": 19800,
    "ample": 20851,
    "providing": 4346,
    "dong": 11947,
    "stella": 11894,
    "quantitative": 20155,
    "recognised": 7843,
    "scares": 29421,
    "mccann": 28641,
    "##田": 30437,
    "damages": 12394,
    "[unused255]": 260,
    "malayalam": 12998,
    "pondered": 28347,
    "superficial": 23105,
    "φ": 1176,
    "ر": 1280,
    "drives": 9297,
    "nave": 12847,
    "applicable": 12711,
    "[unused212]": 217,
    "guangdong": 21287,
    "##nan": 7229,
    "enormous": 8216,
    "##ylus": 18871,
    "warmth": 8251,
    "delays": 14350,
    "ظ": 1287,
    "foothills": 18455,
    "elmer": 21464,
    "##mum": 27147,
    "aurora": 13158,
    "fatty": 19101,
    "##word": 18351,
    "hills": 4564,
    "chaos": 8488,
    "carthage": 21959,
    "wan": 14071,
    "led": 2419,
    "##taka": 28412,
    "exhausted": 9069,
    "##53": 22275,
    "##acing": 26217,
    "##rn": 6826,
    "pressures": 15399,
    "lyrics": 4581,
    "700": 6352,
    "characters": 3494,
    "britain": 3725,
    "commands": 10954,
    "##llis": 21711,
    "##kali": 28613,
    "compromise": 12014,
    "bo": 8945,
    "cherry": 9115,
    "sharks": 12004,
    "kathryn": 20484,
    "montgomery": 8482,
    "pretended": 14688,
    "photon": 26383,
    "newman": 10625,
    "fare": 13258,
    "kurt": 9679,
    "dependency": 24394,
    "utilizes": 21852,
    "##־": 29787,
    "equals": 19635,
    "investigator": 14064,
    "##bee": 11306,
    "[unused810]": 815,
    "therapy": 7242,
    "religious": 3412,
    "favored": 12287,
    "departure": 6712,
    "stated": 3090,
    "lucie": 28831,
    "parent": 6687,
    "motown": 22654,
    "backstroke": 28373,
    "[unused654]": 659,
    "pretending": 12097,
    "attackers": 17857,
    "ʌ": 1134,
    "motel": 14901,
    "bono": 23648,
    "time": 2051,
    "planet": 4774,
    "laborers": 23428,
    "330": 14210,
    "zur": 17924,
    "accession": 16993,
    "##chev": 16179,
    "ス": 1707,
    "apex": 13450,
    "streak": 9039,
    "elvis": 12280,
    "manhattan": 7128,
    "240": 11212,
    "astonished": 22741,
    "425": 23285,
    "failures": 15428,
    "lifting": 8783,
    "##dur": 24979,
    "skills": 4813,
    "genres": 11541,
    "throbbed": 27714,
    "reinforcement": 23895,
    "volunteered": 14382,
    "81": 6282,
    "constance": 15713,
    "dino": 22412,
    "anime": 8750,
    "beaux": 20290,
    "americana": 25988,
    "李": 1877,
    "##ms": 5244,
    "athletes": 7576,
    "##新": 30388,
    "creator": 8543,
    "planners": 27155,
    "donation": 13445,
    "principally": 16552,
    "bloomington": 26372,
    "winfield": 24739,
    "ნ": 1449,
    "##ech": 15937,
    "insisting": 22604,
    "##cured": 19405,
    "##oku": 21940,
    "sectional": 27197,
    "feudal": 16708,
    "penal": 18476,
    "escalated": 26814,
    "slept": 7771,
    "##liffe": 27931,
    "##こ": 30181,
    "##arina": 27943,
    "pin": 9231,
    "admiring": 24588,
    "##red": 5596,
    "watkins": 17055,
    "##iness": 9961,
    "proceed": 10838,
    "apparel": 26278,
    "hear": 2963,
    "murphy": 7104,
    "qin": 19781,
    "ר": 1265,
    "yoga": 13272,
    "flats": 14201,
    "eccentric": 18080,
    "1666": 27407,
    "mal": 15451,
    "ds": 16233,
    "[unused158]": 163,
    "chesapeake": 20867,
    "eastenders": 28936,
    "drama": 3689,
    "'": 1005,
    "[unused593]": 598,
    "sometime": 8811,
    "282": 26267,
    "crazed": 28343,
    "entrances": 18084,
    "rq": 28134,
    "[unused546]": 551,
    "##rana": 16737,
    "steiner": 21264,
    "juicy": 28900,
    "##δ": 29722,
    "claim": 4366,
    "walsh": 11019,
    "kimball": 26659,
    "cushions": 27205,
    "accelerate": 23306,
    "renovated": 10601,
    "##hood": 9021,
    "jones": 3557,
    "[unused639]": 644,
    "lombard": 23441,
    "##lio": 12798,
    "patty": 17798,
    "mingled": 25959,
    "diver": 17856,
    "auditions": 21732,
    "##nnis": 27803,
    "shifted": 5429,
    "panda": 25462,
    "remastered": 19484,
    "sighting": 29426,
    "[unused463]": 468,
    "triggered": 13330,
    "##mann": 5804,
    "designations": 26672,
    "prone": 13047,
    "##戦": 30382,
[...]
